#version: 0.2
e t
r r
a t
l l
h e
a '
y e
p o
p a
e n
c h
c h</w>
o '
e s
o t
ñ et
e rr
e n</w>
a r
x h
e '
a m
a n
t h
e ñ
e m
e ll
a ll
c he
k ell
ñet s</w>
pa '</w>
e t</w>
p h
t he
p e
a '</w>
a ñ
r r</w>
t s
et h</w>
ñet h</w>
l l</w>
kell k
k o
en a</w>
t at
a ñ</w>
a' n
pa r
t e
o m
o rr
s h
et s
o' ch</w>
a p
es h
a rr
a ll</w>
et s</w>
all em
a' t</w>
es o'
o m</w>
o r
a n</w>
a t</w>
p o</w>
p a'
e' t
s he
a ch</w>
ch a'</w>
a w
the '</w>
o k
a po
at s
err par
allem po</w>
n o</w>
am h
e r
m o
ot he
en et</w>
e ch</w>
o '</w>
e ñets</w>
a' t
po n
x h</w>
ye n
ñ o
s errpar
t ena</w>
m ar
ko w
x he
at th
amh a</w>
ye xh
at eth</w>
o ch</w>
ar eth</w>
a pa'</w>
ñ amha</w>
at h
xh no</w>
n e
ar r</w>
y é
an a
e k</w>
e' t</w>
te ñets</w>
po k
t h</w>
m a
e rr</w>
at s</w>
othe n
a y
po '
u '
ot en</w>
e '</w>
et h
ot h
kell ek</w>
err pon
a ch
a k
añ em
a ye
m a'n
o n
en an</w>
che n
e r</w>
ot h</w>
a s
ñ eñ
q u
eso' t</w>
p á
k at
eso' mar
th e</w>
err othen
p u
p en
e y</w>
pe kellk
e ch
ñet h
ets a</w>
e' ñ
at he
es esh
ch a</w>
a r</w>
t at</w>
s o
ye ñ
n om</w>
ño ñets</w>
ñ ats</w>
s e
m et
ch o
ye kellk
ñeñ th</w>
ye s</w>
she r
a ph
kow en</w>
t en</w>
n ana
h u
che n</w>
eñ all</w>
o ñ
pá the
sher b
o ll
p h</w>
m a'
k ë
yexh kat
o' t
ot s
an om</w>
e ñ</w>
k e
err a'
k w
e s</w>
ñ a</w>
che ñ</w>
ye n</w>
p a</w>
y an
rr rr
p a'n
ye m
p é
or a</w>
y am
en ey</w>
y ok
errpon a't</w>
n ar
e't s</w>
eñ ot
e m</w>
xh o
nana k</w>
at ma'n
s o'
n a</w>
a' ph
t etsa</w>
p e'
a pe
y añem
eñ ó
a' ñ
o s
w añ
atth och</w>
am en</w>
w a</w>
orr tat
tat areth</w>
ye s
at h</w>
ana p</w>
te '</w>
o r</w>
es the'</w>
serrpar ñats</w>
pa'n amen</w>
po ets
eñ ech</w>
y oten</w>
p et
pok t
pe y
kellk ë
erra' m</w>
err rr
p ó
a pa
a'ph th
t o
am á</w>
s é
o xhno</w>
o w
k ll
esh a'</w>
ñ erra'm</w>
pa ll
aw o'</w>
a'ñ em
ñeth cha'</w>
m h
sh on
am p
the n
ye serrpar
tat s
ye ch
esh a</w>
em h</w>
apo k
r o</w>
ph ok
o t</w>
y om
a che
am a</w>
ma m</w>
o pa'</w>
k m
e chen
es cha'</w>
allem p
ñ ech</w>
athe '</w>
b err
err a</w>
a s</w>
a y</w>
xh a</w>
páthe rr</w>
ë k</w>
kow en
m am
po ñ</w>
pa n
rr r
ye rr</w>
es em
all oth
ñ apa'</w>
o xh
am pe
es he
eñ e'ts</w>
o' teñets</w>
o ll</w>
o ch
an t
e't en</w>
' t
añ pa'</w>
ye y
te ñ</w>
n é
kell ëk</w>
aph th
at eñets</w>
y et
m u
th ape
k añ
ot eñets</w>
k u
at en</w>
eso'mar the'</w>
a p</w>
ke y
en t
eñ ts
at arr</w>
p ets
xho p</w>
th arr
yekellk a</w>
ph anap</w>
ye '
pe ch
ap o</w>
pekellk a</w>
he ñets</w>
pa m
th é</w>
a' met
pet ma'n
á t
pekellk a'</w>
u t
m orr
a' m
eñ e</w>
o' xh</w>
ll e
xh arr
b err</w>
an apo
a'n em</w>
ma r</w>
eñ et</w>
u' ch</w>
om o
am o
w om
k a
xhe na</w>
che ñets</w>
xh o'</w>
ll oll
m oth
es errpar
am ach</w>
y o</w>
es u'
e xhno</w>
y a
o rr</w>
a' ch</w>
ye yexhkat
poets ath
th ap
m et</w>
a kellk
xhe n</w>
p at
a't en</w>
wañ en</w>
ch et
aye m
p en</w>
errpon the'</w>
chen a</w>
o' ts
ats et
alloth pa'</w>
a xh
páthe 't
a'n om</w>
aye s</w>
ye rr
she ñ
sherb en</w>
a' po
po' poñ</w>
ts ots
n en</w>
t en
at the
th é
k o'
atth o</w>
p athe
á ch</w>
the r</w>
s en
m h</w>
c ell
yen ar
phok w
n en
allem po
y u
e' ch</w>
e' teñets</w>
ats o</w>
xh o</w>
páthe't ets</w>
yok w
yen a</w>
the '
ph añem
an ets</w>
r e
añ a</w>
po xh</w>
pok tena</w>
nar m
o che
eñ all
po é
po e
atma'n tatareth</w>
berr oxhno</w>
l y
all a</w>
s er
po en
aw o'
yexh at
y ap
k ak
an a</w>
pa' t
ot nom</w>
e' tat
p eñ
o n</w>
am et
ye ph
eñó tat
err o</w>
ow en</w>
so cheñ</w>
u rr
po ech
ar w
orr tena</w>
a m</w>
pa n</w>
h ch
pa' par
ka k</w>
eñot at
ayem po</w>
yeserrpar e't</w>
ph a'
akellk areth</w>
eso'mar the</w>
yekellk ë
xh a'</w>
w an
ll om
t a</w>
n om
k a</w>
e'ñ e</w>
u r
a xhno</w>
y eth
a'met heñets</w>
ye kw
ts ach</w>
m at
m an
é chen</w>
err o'
ay e</w>
anapo ets</w>
pa' so'
allemp u</w>
y or
rr ar
ñ anom</w>
y á
t o</w>
u m</w>
pathe rr</w>
che ñ
y o
pa' tats
a xh</w>
ath e</w>
o' ch
ats a</w>
y om</w>
eso'mar e't</w>
t ach</w>
kañ ther</w>
p e</w>
o ñ</w>
xh n
m a't
all o</w>
r or</w>
po rr
n an
kellk o</w>
te rr</w>
po e'
ne kellk
a' p
che sh
an n
a' teñets</w>
pa' m
mo é
y ets
serrpar ñ
esesh a't</w>
allemp ó</w>
a b
all ó</w>
o' mar</w>
k oth
ch ar
yañem a't</w>
ko p
errothen a't</w>
ap h</w>
petma'n tat</w>
om ar</w>
aye n</w>
ñ et</w>
ap á</w>
ot en
et en</w>
e pa
e ll</w>
y ot
th orr
po ko
u '</w>
pa' socheñ</w>
atth ó</w>
t enet</w>
pall tena</w>
poetsath o</w>
eñ or
yeñ ó
po t
lloll o</w>
a'phth o'teñets</w>
km a</w>
a she
ko p</w>
ap a</w>
yan esh
shon t
o xh</w>
m a</w>
ch an
he '</w>
k an
e l
xhe n
pu n
es o
e' sh
s an
m arr
y eth</w>
o't s</w>
m e'ten</w>
aw o</w>
ach pa'</w>
pa kll
che '</w>
a cheñ</w>
ñ en
ot at
cell c
ye ñets</w>
p ell
m á
at eth
a hu
sh ot
pa p
se kellk
pa xh
a' pok
yekellkë n</w>
xh ach</w>
t om
pa'par exhno</w>
eserrpar e't</w>
apok tat
en e</w>
aye s
ño t</w>
shon te'</w>
s ok
pe' n
ot s</w>
errothen at</w>
é chen
y a'
th or
at arr
é pa
yexh k
po en</w>
pe kw
mo en</w>
ets o</w>
e't h</w>
pets ots
m o</w>
ñ u
xh at
ll o</w>
eñ e't</w>
ne ñ</w>
n ok
ch ó
n ena</w>
at on</w>
ts o</w>
s em
ets ro</w>
pey om</w>
pa rr
atma'n tat
thape ch</w>
po et</w>
n apa'</w>
che t</w>
ar eth
ó rr
á '</w>
ne '</w>
ye sherb
ot enet</w>
err et</w>
er pon
e' chen</w>
all och</w>
ko r
e't ena</w>
ch a'
am ets</w>
tat s</w>
añ eñ
w en</w>
en k</w>
y a</w>
pe rr</w>
e't enet</w>
a sh
o sh
eñó t
o' rr
yeñ e'ts</w>
po r
an et</w>
ye xhena</w>
n em
mo en
an t</w>
ch orr
rr om
ap u
yen et</w>
ye ll
u ch</w>
s err
es e'sh
err pun
che '
ampe s</w>
kak axhno</w>
esesh athe'</w>
the pa'</w>
ser par
paxh arr</w>
erro' then
err u
sh é
narm ets</w>
ay a</w>
a' yes</w>
yañem a't
eñ a</w>
ño ñ
e p
yeyexhkat en</w>
w anom</w>
te r
s h</w>
p ó</w>
o' t</w>
errothen the'</w>
all oth</w>
y aye</w>
w ak
so ch
e pe
t em
ma' y
ye r
kll ek</w>
añem at
ts ach
pekellk ë
key k
se kw
phañem a't</w>
e xh</w>
apo the
ó n
ph a</w>
atth o'ch</w>
p ath
orr tat</w>
om ar
ne s</w>
ko hu
a'ñem a't</w>
os a</w>
ko ñ
ar en</w>
a'phth o't
ñ ot
po r</w>
pa w
o' m
esu' t</w>
añ e
e'ñ ech</w>
e' n
am apa'</w>
te r</w>
sh et
m er</w>
ye k</w>
en k
s u
err err</w>
po ena</w>
a' y
s et
m añ
che rr</w>
kellkë t</w>
ath oll</w>
yexhk at</w>
ph a'nem</w>
mo n
er othen
awo' xho'</w>
aw anom</w>
aphth oteñets</w>
all owen</w>
yan esha'</w>
m e't
at enet</w>
arw as</w>
ar e</w>
ó t
t s</w>
po er
pap ets</w>
pa'so' cheñ</w>
a g
th o</w>
pu k
p u'
m e'
aw an
a l
ts o
ts a't
thé '</w>
r et
p enet</w>
ma't h</w>
et he'</w>
erru then
cho r</w>
yé xh
on t
yey om</w>
xhn u</w>
pall tetsa</w>
ch é
á rr
ts en
errrr pon
err athe'</w>
po e'</w>
orr rr
qu el
quel qu
pa' cheñ
moth tetsa</w>
eñts o</w>
xh och</w>
w as
po sh
po err
b h</w>
ñ err
rrrr ar
othe xhno</w>
esem pó</w>
esu' mar
errothen cha'</w>
yen pan
th o'</w>
ot eney</w>
e y
y aph
r ant
pa ñ
ma' pa</w>
en e'</w>
sh om
orr t
kell é</w>
em h
at ena</w>
a'ñem at
p em
k ar
eso kop
an á
yenar emh</w>
ts ách</w>
ke yek</w>
atma'n tat</w>
u th</w>
u n
u m
par ant</w>
mo et</w>
ll es
es thé</w>
errothen the</w>
e xh
cho ph</w>
ch o</w>
all cha'</w>
pen t</w>
mam th
ko sh
ap at
yam o'ts</w>
lloll opa'</w>
ll é
w apo
eñall et
chesh an
serrpar e'teñets</w>
e'ñ ot
po er</w>
met at
esem po
ts ell
rr en</w>
po poñ</w>
par e't</w>
en at</w>
pen ten</w>
p a't</w>
ch och</w>
apa pa'</w>
ampe rr</w>
a' pa'</w>
a xhe
ye t</w>
ts a</w>
tat nom</w>
so chena</w>
pe pe</w>
orrtat yeñe'ts</w>
all ow
thap e'ch</w>
sh ón
pakll o</w>
ar et</w>
xhe ñets</w>
ph o</w>
ch e</w>
añem a't</w>
a't ets</w>
pok te
nana k
ay xhat
ñ e
yañem a'ten</w>
ch atset
w erra</w>
w ena</w>
pen teñ</w>
or ena</w>
es the'
ar et
an em</w>
a'pok tatareth</w>
é p
yes et</w>
ts á
t or
s apa'</w>
kañ th
aw ath</w>
ñ er
po eshe
p eñot
n esha</w>
llom h</w>
errrr othen
arr apo
échen an</w>
mo ech
kellk a'</w>
e poxh</w>
m an</w>
at et</w>
ache ñen
yen an</w>
m or
aw a</w>
thorr apo
rrrr r
n eñ
kë n
es omar
arr eth</w>
amp en</w>
to poena</w>
t e</w>
ph a'n
mo er
apok tat</w>
yey or
s en</w>
po em
pe r
pa'cheñ er</w>
esesh ak
ach or</w>
a c
ñu ñets</w>
ño ñech</w>
yexhkat enet</w>
xh o'ch</w>
tharr omar</w>
shón te'</w>
n at
ma she
atma'n t
ñeñ th
path et
n esh
t t
se yom</w>
rr an
po esh
o' n
a ly
y anap</w>
w all
serrpar e'tat
rr arr
pa xharr
mh o</w>
e ñet
atth o'</w>
a' m</w>
ó ch</w>
ñerr am</w>
y ak
poko llo</w>
po rr</w>
orr a</w>
err o
pokt ethe'</w>
po et
l es</w>
ño ch</w>
á t</w>
w añ</w>
th a</w>
po m
po echen
pe xh</w>
p ats
m er
eso' marr
e'ñ oteñets</w>
ath o</w>
arr er</w>
a ñeth
w athe
ko' nes</w>
ch á</w>
pó n</w>
pen t
nar e't
moth tena</w>
m eshe
rant o</w>
petma'n tach</w>
ne y
n et
areth o</w>
am e
a' cha'</w>
ño rr</w>
tats a</w>
sherb eney</w>
pen yo</w>
ont apo</w>
err an</w>
añ oñ
a kowen
yéxh kat
y e</w>
paw o</w>
p s
o xhe
n es
añ ñ
a' k
y apoktat
t areth</w>
par t
o s</w>
mamth oth</w>
es ok
am ách</w>
yom neñ</w>
she kë
s anap</w>
pe ñets</w>
m é
m ech</w>
ku wen</w>
echen a</w>
ch etso</w>
an ets
a' b
rr em
erpon a't</w>
ats to</w>
atma'nt át
ñ e'ts</w>
s e</w>
pá r
pokt e</w>
poeshe ñ
em a't</w>
at o</w>
an at
yok thape
xh ar
w apat
m ath</w>
echen an</w>
e chen</w>
an a'</w>
all po
á yes</w>
yem hch
pa so'
o' r
n ot
morr eñets</w>
errothen thé</w>
che ch</w>
arw as
amo en</w>
all pón</w>
ñoñ ts
yam ots</w>
wañ erro</w>
w er</w>
t u
serrpar e't
n um</w>
k pa'</w>
eth oll</w>
esthe' ña</w>
esh apa'</w>
erra' tsen
qu k</w>
ph apa'</w>
pa ch
ats tena</w>
a'p th
ó t</w>
wom enk</w>
ts orr
shet amo
r o'
pa't arrer</w>
ll ll
kohu en</w>
j os
errpun a't</w>
cho p</w>
añe kop</w>
at t
ar ech</w>
apo en</w>
é poet</w>
ye g
y apo
ts ap
n am
esesh at</w>
chó papets</w>
cho pe'
chet atso</w>
apok tatareth</w>
ap ko'
amet heñets</w>
am n
ñ é
xh ok
w e
th opa'</w>
so les</w>
arr apo</w>
t oñ
she '
sen ten</w>
phokw a'</w>
pa s
n a'n
ma'y arr</w>
e' ch
ath é</w>
as a</w>
an ena</w>
qu ell
pe yen
eso' cha'</w>
en et
at enan</w>
a yena</w>
tat eñets</w>
s a</w>
othe '</w>
orr tetsa</w>
m om
esem po'
epa s</w>
a k</w>
yeñ orena</w>
thé pa</w>
at ech</w>
ampe r</w>
é pa</w>
ye yexhkat</w>
tsots e</w>
ts u
toñ er
serrpar et
r osa</w>
po pa'</w>
pa' pakllo</w>
p ena</w>
ll u
key ka</w>
ech arr
ame a</w>
a'ñem at</w>
a't h</w>
a' yen</w>
o c
nanak cha'</w>
allempo '</w>
ache t</w>
ye '</w>
ya kowen
t ot
t a't
s e'
r en</w>
r a</w>
p err
ma ch
erro'then at</w>
ats n
all cha</w>
é n
u ten</w>
t eñ
s am
pa ch</w>
ok ë
o' y
o' ten</w>
n oxh
m ath
ll am
eñts o
es the</w>
err ó
e ph</w>
che ne'</w>
ap nom</w>
' t</w>
ñ amea</w>
yam ots
s eñ
rrar ets</w>
o' mar
m apo
k é
es h</w>
erro chen
e' tats
aw en</w>
apothe ñets</w>
all u
ó r
ñet he
é '</w>
ye par
yañema't wa</w>
w ar
ts apo</w>
ts ache
so' ch
s a'
po '</w>
pech me'ten</w>
pe ñ</w>
m ant
eñ ay</w>
ay oth
yé m
yech kat
ye yenpan
y at
wathe r</w>
the' pa'</w>
rr orr
pokt eth
pok tetsa</w>
ph arr
mh orr</w>
m e
eñot ateñets</w>
cho pa
arr mo</w>
ar e'</w>
amet he
épa ph</w>
ye mar
tsa't a</w>
t arr
pé y
po' n
po c
p eserrpare't</w>
n esha'</w>
m ets</w>
ko yanesh
jos e</w>
errrrpon a't</w>
añeñ po</w>
athe kma</w>
ar e't
am a't</w>
yexhat eney</w>
sé rr
serrparñ atso</w>
serr rrrrar
rr a</w>
p eth
ot ampes</w>
osh ak
n ach
mashe ñ</w>
key kë
kellkë na</w>
at a</w>
é sh
é m</w>
yé n
ts am
thé pa'</w>
tat o</w>
t ama</w>
ph s
ne kw
errpon a'ch</w>
e' cheñets</w>
atthe kma</w>
all o
ñeth cha</w>
á s
yeph áyes</w>
xhen et</w>
the n</w>
t all
s ot
quelqu k
pé n
o'ts en</w>
n orrtat
moen eñ</w>
ll em
u ñ
tharr o'mar</w>
so' s
rr e'
pokt et</w>
pa t</w>
pa so
o'rr err</w>
né n
m oth</w>
ke ly
eñ en</w>
chen an</w>
che km
ayxhat añ</w>
an en</w>
é ch
yeyor en</w>
ya sh
u r</w>
rr omo
ph aná
pathet ets</w>
orr et
or pa'</w>
nekellk a</w>
n á
kow amp
e pa'
b h
yexhat ey</w>
yem chatset
yan esha</w>
u k
tsots met</w>
pa chor</w>
kë r
er err</w>
at en
aph ña</w>
é chene'</w>
yeñó t</w>
yan etsro</w>
y aññ
thap e'
petsots a</w>
oñ s
narm ets
k anets</w>
eso'mar cha'</w>
ch ach</w>
yen ten</w>
ye sh
ya shot
s ent
rr et</w>
re kër
ot yen</w>
o y
morr echena</w>
kë ll
kellk ë</w>
c ar
añeñ popa'</w>
at wa</w>
ar a</w>
apok t
ñoñts oxhno</w>
yé nar
yeñ otat
yan apoen</w>
y a'n
t am
shetamo ets</w>
serrparñ ach</w>
s eserrpare't</w>
phokw a'nom</w>
paxharr tena</w>
p e't
om arr
m ach</w>
esokop the'</w>
epe xhno</w>
ech a</w>
c owen</w>
é th</w>
yé pen</w>
yok thapech</w>
xh ap
she ll
serrpar e't</w>
s u'
poech atsa</w>
pekw a'</w>
pa r</w>
n a't
kañth ro</w>
arr rr</w>
aph ñats</w>
am o'</w>
a'm eth
ñ er</w>
á n
yekw a</w>
xh u
w e</w>
shom em
sh or
sekellk a</w>
rr r</w>
pe ph</w>
ne rr</w>
mam o
ma' p
ko m
at oll
as pan</w>
am e't
ab hch
a'ñ apa'</w>
a'met he
á p</w>
yell sheñ
w erro</w>
te y</w>
sherb en
rrrr r</w>
pokte yaye</w>
pe'n anom</w>
p n
p eñó
o p</w>
ma s
cell e
ñet s
ñ ama</w>
xhe ñ</w>
soch etsa</w>
rr rr</w>
po' po
po ch</w>
pha'n etsro</w>
ko rr
eñotat ey</w>
es cha'
epe '</w>
che p</w>
ch u
at esh
aphth ot
ach a</w>
árr orr</w>
yé xhena</w>
yesherb eso'
w err
th u
ter o
sérr par
serpar ñats</w>
r oth</w>
quell quk</w>
n enan</w>
mo t</w>
ll en
koñ e'th</w>
kowen the</w>
eth oll
err ats
e p</w>
ch á'</w>
celle c</w>
atma'ntat aretho</w>
ateth cha'</w>
é t</w>
yet ma'n
yekellk a'</w>
w en
tat yes</w>
sherb eso'
rr enan</w>
poen ar
ph otnom</w>
n err
meshe t</w>
kë ll</w>
ko yanesha'</w>
eñtso pawo</w>
ese'sh ach</w>
err a't</w>
aye r</w>
atth uch</w>
atth a</w>
a' yena</w>
yeñ ema't</w>
y apoktat</w>
ur a</w>
tsell a'
ph ot</w>
met o</w>
m po</w>
ke ll</w>
k areth</w>
et eñets</w>
aw u'</w>
atth oxh</w>
ar o</w>
allpo n</w>
allow eney</w>
a' yerr</w>
a' ch
a ñets</w>
ñ á</w>
yet arwas</w>
ye k
u' teñets</w>
th o
tem a'n
te cha</w>
shont e</w>
orr ena</w>
n an</w>
ma' ñorr</w>
ké ll
em apa'</w>
ats e'ten</w>
á m
yexh etsa</w>
w er
th aphña</w>
sher enk
rr u
po t</w>
pey a'</w>
pekellkë '</w>
par tenet</w>
p r
oche mh</w>
en en</w>
echen an
at o'</w>
an eñ</w>
a'm at
a qu
xh ap</w>
w apa</w>
w amp
t a'</w>
pok te'</w>
po qu
pa no</w>
p ats</w>
m esh
ll oten</w>
et o</w>
esok pa't</w>
en oñ
ay nat
ats e't
ap n
yem h
ye pen</w>
y ot</w>
tsá ch
thape chen</w>
shekë mh</w>
she rr
serrparñ ats
rr or
q u</w>
pé kellka'</w>
pu ets
o'ts e</w>
ll et
esesh a'
ay o</w>
aw athekma</w>
allempo ñapa'</w>
ak e'</w>
ñ em
yu ten</w>
yot eñ</w>
yexh ateñets</w>
poen asa</w>
pe keyk
p l
ot an</w>
n añem
ch ets</w>
atthe ma'th</w>
ar pa'</w>
a' rr
w at
t arwas
t ak
sé n
rekër kanets</w>
re xh</w>
po no</w>
pe r</w>
par ant
p eñót
othe r</w>
m all
k o</w>
erra' the</w>
er et</w>
añ cha'</w>
aye rr</w>
ë sh</w>
yokw ampen</w>
yekellk ayes</w>
xh et
tharr aña</w>
th pa'</w>
t an
s ell
pé tsotse</w>
pe xh
ll y
ll ok
eñótat ey</w>
erró then
ech o</w>
e pó
che' tats</w>
char emh</w>
a'ñem a't
yes er
yashot yen</w>
wall am
t as
poesh metat
p á</w>
oñ en</w>
omo et</w>
o' k
n otnom</w>
mo e</w>
eñ é</w>
err rrrrar
e k
ch ap</w>
aw ath
arrapo xhno</w>
a' pokt
ó th</w>
ñeñ ch</w>
ñ o</w>
yeñ ot
yeph a</w>
y orrtat</w>
xh o'
t enan</w>
t amh
rr oxh
rr er
r añ
pech met
pe cellc
pa' pa
orrtat yeñets</w>
on añ
m ot
k a'n
err athe</w>
e'ñ e't</w>
ch at
ch ap
añ en</w>
aw o'ch</w>
at on
apo '
ape ch</w>
an ma</w>
yom por</w>
yen teñ</w>
xh at</w>
so' chena</w>
sherr b
se yen
s ets
rr oxh</w>
poé ts
pets o'tse</w>
pa socheñ</w>
otat o</w>
orrtat nom</w>
oll pa'</w>
oche k</w>
o k</w>
koth aphñats</w>
ko n
en athe</w>
e'ñ otato</w>
ch arr
a'pokt añoñ
yeth or
ye xhe
ts om
tero pexh</w>
ten o</w>
t et</w>
t all</w>
poe y
phaná p</w>
peyen poe'</w>
pekellk ë</w>
pe yexhkat</w>
pa'm e'</w>
ots é</w>
och no</w>
n añema't</w>
n ach</w>
lle xh
eserrpar et</w>
en ana</w>
at et
a'b ell
a' r
ñeth pa'</w>
yeserrpar et</w>
yes en</w>
yem orr
toñer ochemh</w>
te ch</w>
shot amets</w>
ser ets</w>
se kellkë
r et</w>
poéts atho</w>
po s
po e'ñ
pekellkë r</w>
pe'n wer</w>
oñ o</w>
ots en
ot ena</w>
or ay</w>
om h</w>
mo ch</w>
ll es</w>
kë ph</w>
eñótat eney</w>
es ot</w>
e' chorr
e cha'</w>
a'n en</w>
a cha'</w>
ór e'tena</w>
ñ ech
w a'</w>
po po
pa'tats tat</w>
pa'm other</w>
ko ñeth</w>
eñotat eney</w>
eso'mar the'
eso' cha</w>
cheshan esha'</w>
ch ets
apo et</w>
apko' met</w>
amn ar</w>
am oth</w>
all o'</w>
ahu o'</w>
a'pok tat
a kop
yexhkat en</w>
yexhkat e'</w>
yeserrpar ña</w>
ye pe'
yaph chan
xharr a'</w>
wak ësh</w>
w ell
w apa'</w>
sheñ o'mar
sheño'mar et</w>
she ch
poets ath</w>
poeshmetat ets</w>
ph a
o't enet</w>
o't enan</w>
ma'y arr
ets r
err oten
err ach</w>
cho y
añ oth</w>
ñeñth cha'</w>
yeyexhkat yen</w>
yexhat eñe'ts</w>
ye yer
ts erro'
the m
tat en</w>
s a'ñema't</w>
r pa'</w>
po eth
pe s</w>
p es
m ats</w>
kellkë tsa</w>
h o</w>
esempo' ch</w>
e po
am es
am a'</w>
ñeth xha'</w>
yexh c
ye ñoch</w>
y on
ph a'ñema't</w>
othe t</w>
ot anet</w>
o' th</w>
eñot eñtsopawo</w>
eshe '
err en</w>
err e'</w>
e' the'</w>
e poet</w>
ch ateñets</w>
añeth oll
ats rre'
at añ</w>
ann a't
ach o</w>
a't areth</w>
ñet t
y a'ñema't</w>
the ñets</w>
the t</w>
the ph</w>
shon to
she m
rrem o
poer ets</w>
pha' yes</w>
pent nom</w>
pe ye'</w>
pan amen</w>
oñ th</w>
ot et</w>
koth ap
eñótat eñets</w>
ch o'</w>
ch o'
atma'ntát areth</w>
a' yes
ñer a'm</w>
yá ñem
yepe' rr</w>
ye p
xhe r</w>
tsots e'</w>
rr en
pó porr</w>
pár ets</w>
pok tato</w>
pharr otampes</w>
pe ph
o'ch e</w>
n ot</w>
l y</w>
l os</w>
kellk et</w>
k a'</w>
eñot oxh
esesh akop
esesh ach</w>
esempo ch</w>
err rr</w>
err at</w>
epa ph</w>
en o</w>
che ñech</w>
all o'ch</w>
a ko
órr tena</w>
yé thor
yokw amperr</w>
ye ñ</w>
ye r</w>
yañem at
yam o'ts
yakowen terr</w>
thor e'tenet</w>
th othe'</w>
so ll
sh un
phokw a'nem</w>
pha' yen</w>
pa'tats meto</w>
oñ a</w>
ot errerr</w>
om pa
noxh pa'</w>
n o'ch
met aneñ</w>
k g</w>
esu'mar the'</w>
esh a'ñapa'</w>
err e</w>
e' teñ</w>
che met
ashe ñ</w>
aph o</w>
ap yes</w>
amp es
acheñen esha</w>
ñeth e</w>
á xh
yeñ ora</w>
yem ñot</w>
yañem at</w>
y aw
u xhnu</w>
tserro' th</w>
thap e'chen</w>
th ar
sérrpar ñats</w>
s a'phtho't
rr ena</w>
ro' këph</w>
r eth</w>
pé pha'nem</w>
poe' mer</w>
pe kllek</w>
pa y
or anma</w>
omo en</w>
o' ll
o qu
né sochena</w>
narmets oxhno</w>
m a't</w>
ko ñeth
k ot
eso' t
es u
em a'</w>
e' pa
chó peph</w>
b er
añ o'</w>
at eñ</w>
am pen
ñ amh
á ph</w>
ye po
y orr
xh ets</w>
wom hch
urr tat
t amets</w>
set ma'n
rr é
rr eñets</w>
rr et
páthe r</w>
pu ñ</w>
poechen atstena</w>
pey och
pe chen</w>
p e'ñ
o'y os
o'm te'</w>
ne r</w>
nar e't</w>
m a'</w>
ko y
ets pa'</w>
chorr e'</w>
che r</w>
ch pa'</w>
añ exhno</w>
as ot
ñ ato'</w>
é ch</w>
á p
yor enet</w>
ye ño
yak ren</w>
xhok mach</w>
xho p
xh or
w arr
the ña</w>
th aya</w>
rr o'n
r or
phañem at</w>
ph ll
ph ar</w>
ph an
petsots e</w>
paso' cheñ</w>
pa cheñ
om pa</w>
n u
koth ets</w>
g at
eñor ena</w>
es xha'</w>
errothen cha</w>
e pa'</w>
chekm ats</w>
ayes et</w>
aw as
atthe km
all ó
yeyenpan nena</w>
yekw amperr</w>
yech me'ten</w>
yash oten</w>
y át
y achor</w>
xhen an</w>
tom a'n
the pa</w>
sen t</w>
rr ot
rr o</w>
pé kellk
pa' s
p esh
okë r</w>
nan at
n orrtat</w>
n et</w>
n e'ñ
n e'
mo ñ
mo eñets</w>
ma chet</w>
m ap
ll err</w>
k as
eñallet atsa</w>
es o</w>
erra'tsen a't</w>
e'ñot enan</w>
e' man
ateth cha</w>
arr ém</w>
allo wa</w>
ñ e'
ñ a'</w>
á ph
yot yes</w>
yom ena</w>
yokthape ch
yexh qu
ye peñ</w>
y orrtat
y etsa</w>
y ap</w>
wom h
wom enk
w o</w>
t eñech</w>
sekellk a'</w>
se perr</w>
rrr err
páthe '
pá th
ph u
ph ach</w>
pe k
pa' the
o' m</w>
nana c</w>
m e'tat
kowen at</w>
esh o</w>
eseshak pat</w>
epa y</w>
cheshan esha</w>
cellc ë
aye t</w>
at cha</w>
arrapo '</w>
ap th
a'po ets</w>
' ten</w>
ñ oten</w>
é ts</w>
yem h</w>
xh orr
wom en
wamp r
ts apo
thap ña</w>
rr o
poko ll
phok thape'ch</w>
ph apa
ph am
pekeyk a'</w>
pa'tats met</w>
on k
o' tat
n ent
moech eth</w>
man tat</w>
ma xhno</w>
kañth r
kan awas
g o'
es ésh
en ana'</w>
ell erro</w>
el ena</w>
chope' ch</w>
aynat areth</w>
an tat
amp s
amo esh</w>
ñ ach</w>
é mot</w>
á poen</w>
yekellk ë</w>
y órr
y a'po
w á
w axh
u tat
ts en</w>
serrpare't eñtso</w>
rr ene'</w>
pó porr
pó moet</w>
poets arr
poenar emh</w>
phs eñets</w>
ph amha</w>
parant ake'</w>
pa'n am
pa' ñ
pa' tats</w>
orret yena</w>
or tat
oll ar</w>
l a</w>
kë na</w>
kow enan</w>
kellk arrmo</w>
ke l
et a</w>
eso'marr the'</w>
es thé'</w>
erra'tsen the'</w>
erpon the'</w>
chet ats
c o</w>
awan erret</w>
aw aña</w>
at yen</w>
at man
at an
a' moen</w>
ó s
ñ oth
ñ errrr
á pa'
yexhkat enan</w>
yenar e'tats
ye ch</w>
wañ eñ</w>
wan en</w>
tsella' theph</w>
th a'
ta't e</w>
sé serrpare't</w>
shonto che'tats</w>
sherb h
sh a'
s añema't</w>
s ap
ph á</w>
ph á
pe keyka</w>
pe '</w>
par ets</w>
pa chet</w>
n ats</w>
mo eñ
ma'n om</w>
ma sheñ
kellkë '</w>
eth a</w>
et at
es o'ch</w>
es che'</w>
err ot
er o</w>
ell a</w>
echen anet</w>
e xhe
c o
ats e'teñ</w>
arr rr
am at</w>
ó ten</w>
ó k
ñeñ t</w>
yá m
yets orr
yepar tena</w>
yen t</w>
yem ch
ye x
w err</w>
w apa
t et
se y
se kllek</w>
poko ll</w>
pekw a</w>
pech ta'</w>
pe ch</w>
orr an</w>
nom h</w>
nem on
ne y</w>
mu th
mh orr
mam esha</w>
m ok
ll u</w>
ko mon
eñ e'ch</w>
esem pó
errpun the'</w>
en a't</w>
che ph</w>
ch no</w>
at ets</w>
arr orr</w>
arr cha'</w>
ar ot
ar em</w>
an apu
am u
allem h</w>
ñ an
é m
yé th
yu m
yesherb es
yech met
ye' n
yaññ oten</w>
yap xhena</w>
xhe ñ
xharr amoth</w>
xh u'</w>
ts omo
tor kë
to ñ</w>
thape' cherr</w>
t arwas</w>
she ma
serrrrrrar ñats</w>
s ech
s añem
s a'p
rr err
rr ak
r er
po poer</w>
pe yexhkat
oxh tatnom</w>
ot eñe'ts</w>
os an</w>
nare't an</w>
n eth</w>
mo er</w>
mañ en</w>
m át
ll an
kellk a</w>
ets er</w>
epa' ch</w>
en a'</w>
e' ñethe</w>
e ñeth
ch é</w>
ch ar</w>
car los</w>
atesh are</w>
at areth</w>
ashe '
all óch</w>
all ach</w>
' ch</w>
épa y</w>
yeyexhkat nom</w>
yeyexhkat eñ</w>
yes errrrrrar
we po</w>
was h</w>
t err
shomem tamets</w>
sets otsé</w>
sem h
r e't
po erra</w>
peth orr
oñs as
o' then
n ets
n aten</w>
mamo en</w>
ma' teñets</w>
ll err
km ach</w>
esesh a'ch</w>
en eph</w>
e'pa y</w>
choy or</w>
cho yo</w>
ch ak
añ o</w>
añ e</w>
ayes nom</w>
ath u
ar ñapa'</w>
apokt añoñ
aph atañ</w>
an etso</w>
ampe ñets</w>
ak a'</w>
é s
yé nen</w>
yo poer</w>
yeñ oten</w>
yeyor ayen</w>
yemar e</w>
yap xha</w>
yanesh llomh</w>
y a'ñemat
xhe rr</w>
xharr a'tets</w>
thorrapo teñets</w>
the ñ
tem an
teman teñets</w>
tarr amets</w>
t r
t ar
sé ñ
so'ch ñets</w>
seyen pare't</w>
sekw anem</w>
sekw a'yerr</w>
s om
s a'ñemat</w>
s a'n
pár eshe
poet ar
po' xh</w>
po ech</w>
ph a'</w>
or mets</w>
o' xh
o' pono</w>
no'ch o</w>
nem o
mo enet</w>
ko '</w>
kll o
kely k</w>
hu a</w>
eñ ñ
eso cha'</w>
eserrpar ña</w>
em en</w>
e'tat eñe'ts</w>
e' mar
chope' chen</w>
atth u</w>
ape xh
ape ch
ann enet</w>
all me'
ach y
ach an
a'poktañoñ tatareth</w>
a' ts
a' teñ</w>
ñen th</w>
yé ch
yok sh
yo c
yexhkat yeñets</w>
yem chan
ye yellsheñ
ye pon
w atena</w>
u teñets</w>
ts e'
t och</w>
s eserrparet</w>
rr or</w>
r par
r ar
r an
poesheñ arr</w>
po' k
pe' ph</w>
paw o'</w>
oxhe t</w>
oshak ets</w>
nemon asheñ</w>
ne p
ne g
n arr
n apo
moer ell</w>
metat eney</w>
met ro</w>
k u'
esh kën
esempo the'</w>
e'ñ o'</w>
e' rr
che 't
ch o'ch</w>
aw u'
at ar</w>
ash r
as o'ch
a'y apa
a't a</w>
á po</w>
yesherbeso' ten</w>
yepon pen</w>
yekellk awa</w>
yech me'
ye perr</w>
yapoktat en</w>
yan apyes</w>
wapat erran</w>
to po</w>
th o'
t o'
s as
rr enet</w>
r err</w>
poe' mar</w>
peyexhkat nom</w>
pet pa'</w>
pen ayes</w>
pa j
oñs as</w>
on eth</w>
oche kpa'</w>
moech atset
mo k</w>
masheñ pa'</w>
mar tha</w>
mar en</w>
mapo e'</w>
m ats
ke wash</w>
k pan</w>
et ena</w>
et at</w>
es cha</w>
errpon at</w>
errpon a'cha'</w>
e' th
c ow
as peñ
ann ena</w>
amethe ñe'ts</w>
a'n ena</w>
ñoñ o</w>
é n</w>
á ts
yu k
yenar et
yekellk ayen</w>
ye ñoño</w>
y ath
xhu p</w>
xho r</w>
ut num</w>
tsap ath
t amp
soch ñets</w>
serrpare'tat ey</w>
r em
puets ath
pom por</w>
pokteth é</w>
pn ar</w>
phokw e'</w>
pat ets</w>
orrtat yeñ
o't eñech</w>
o y</w>
narm ech</w>
nana ko'</w>
ma' ll
ll em</w>
key ëk</w>
kellkë ts</w>
go' tats</w>
eñ e'
et pa'</w>
et enet</w>
es chá</w>
en pa'</w>
em aret
che ll
at u
at e'</w>
apa mpo</w>
an om
am axh</w>
all o'tsen</w>
a't ena</w>
a'pth o'teñets</w>
ñ en</w>
yeserrpar e'ten</w>
yes an</w>
yech me't
ye yechkat
yaph cheñets</w>
yap xhe
u' t
u ts
tsu ts
t o'r
serrpar e'tenet</w>
sekw a'</w>
sa' p</w>
s eñó
rrom an</w>
pó rrarr
poem okër</w>
po' nen</w>
po' bh
peñót eñe't</w>
peñot nom</w>
peñ oranma</w>
pen ayer</w>
part enan</w>
par et</w>
pam o'mte'</w>
pall t
ots en</w>
oth oll</w>
o'ts en
nañem at</w>
nan en</w>
n u</w>
n akowen
mo ch
mas o</w>
ku w
kow enet</w>
k at</w>
he ñ</w>
eñ e'</w>
eth o</w>
esesha' the'</w>
es chá'</w>
ent et</w>
e cheñets</w>
ch ot
c ë
berr uxhnu</w>
añ the</w>
añ pa</w>
ats é
ats orr
atoll op</w>
at ene'</w>
ash o'
apok tach</w>
ap xheñets</w>
an enan</w>
ames n
allu thpa'</w>
a'phtho't eñech</w>
a'phth u'teñets</w>
a'phth o't</w>
ñets pa'</w>
ñerrrr a'm</w>
ép sheño'maret</w>
yok rrena</w>
yeth orra</w>
yekw amper</w>
y oñ
xhop llomh</w>
wan em</w>
w ay
to po
tho pe'ph</w>
th eten</w>
sañem ach</w>
s eñets</w>
s er</w>
rrom a</w>
rañ th
pokteth e</w>
poe che
po' ch</w>
ph a'ñemat</w>
pey é</w>
pets ot
pa'par e
pa' choyo</w>
o't areth</w>
ne yom</w>
mo '</w>
ma'n en</w>
kothap ñats</w>
ko yemh</w>
eñó teñets</w>
etholl o</w>
errrrpon the'</w>
err ey</w>
ech no</w>
ché sh
che metateney</w>
che ch
añ cha</w>
awo' xho</w>
aw ar
atset en</w>
atman '
at choch</w>
aso'ch añ</w>
arr pa'</w>
apa no</w>
ap u</w>
all ot
ag ap</w>
acheñen esha'</w>
ach e</w>
a't eñech</w>
ñ apa</w>
yéxhkat enan</w>
yu kw
yo xher</w>
yeñó t
yeñ o'ch</w>
yetma'n tach</w>
yerr moen</w>
yenar e't</w>
yell she
y aren</w>
wapa t</w>
ts oth</w>
ts e
tom e</w>
to po'
su cheñ</w>
sherb es
san áp</w>
sa'phtho't wena</w>
rrr err</w>
rr oth</w>
qu l
pokt e'the'</w>
poesheñ ar</w>
po' ch
pet mantat</w>
pech ap</w>
pe't ok</w>
pam p</w>
p he
or ok
n och
mon te</w>
mo ets</w>
lles en
kë ñets</w>
kowamp enet</w>
kell w
ka she
k h
k a'
hu om
erruthen a't</w>
errothen a'cha'</w>
ech pa'</w>
e' ñet
e' xh
e' terr</w>
e pa't
chen et</w>
chatset en</w>
berr ochno</w>
ayoth pa'</w>
ayes a</w>
ay oth</w>
awo' t</w>
atset ara</w>
ats err
atarr pawo'</w>
atan ñats</w>
apu k
aph t
an emh</w>
am athe'</w>
ache ñ
a' xh</w>
ót nom</w>
ñech cha'</w>
ñ ath</w>
ye xheñets</w>
ye keyka</w>
then ath</w>
t ar</w>
shont a'</w>
shon tena</w>
she k
s ar
rr eña</w>
pá terr</w>
pu' puñ</w>
poe' chor</w>
po'bh ath</w>
pekw e'</w>
pechmet enat</w>
pam ots</w>
pa l
oxh tena</w>
o' ll</w>
n aphth
n a'teñets</w>
mam esh
ma' llam
m omo
m eth</w>
ll ech
ll chap</w>
këll ka</w>
ko she
ke qul
kanawas ath</w>
k aw
esu'mar the</w>
eso'mar te'</w>
esh ar</w>
err athé</w>
en á</w>
emh o</w>
ell o</w>
ech yen</w>
e pé
che me't
ch or
ay at
axhe rret</w>
at thenath</w>
ap et</w>
an at</w>
am och</w>
allempo pa'</w>
all pa'</w>
a'y oth</w>
a' pu
ñ atso</w>
é ñ
yé pha</w>
yom nen</w>
ye m</w>
ya'n etser</w>
y a'ñem
xh a'n
w etsa</w>
w a'nom</w>
u ñ</w>
ts err
tom antat
t a'
sé kellkë
sherbeso' teñets</w>
sherb ets</w>
sherb e'
sh ak
serr ar
sekellk ë</w>
r orpa'</w>
r ena</w>
r e'tenet</w>
páreshe maxhno</w>
puk tena</w>
por pa'</w>
pokt enathe</w>
phu kw
pha' kowen
ph oten</w>
ph oc
petma'n t
peph awanom</w>
p u</w>
ot ey</w>
om o</w>
o p
n apa</w>
n apa
má p
me kell</w>
ma' poch</w>
m e't</w>
m a'ten</w>
lles pa'</w>
k en
k ar</w>
gat eney</w>
esh a't
ese'sh athe'</w>
es te'</w>
errpon cha'</w>
epó xh</w>
e't en
char o</w>
ch am
añeth oll</w>
awath pa'</w>
ats ompa
ashe r</w>
ap xhenet</w>
ap en</w>
anapu ets</w>
am á'</w>
am eth
allempo ll
all ap
al al
ak ey
a'p eth
a'methe ñech</w>
ñot wa</w>
échen et</w>
é pa'</w>
yéth óre'tena</w>
yén a'</w>
yáñem at</w>
yerr rr</w>
ye këllka</w>
ye chopa
ye cellc
yamo'ts esha'</w>
y os
xho xh</w>
xh u</w>
w e'</w>
w as</w>
urr tena</w>
u ll
tsách pho</w>
ts o't</w>
ts axh</w>
ts a'
the rr
shont é</w>
sherenk maso</w>
pé na</w>
páthe' tech</w>
posh oll</w>
poerr ollar</w>
ph orrtatnom</w>
peñot oxhtatnom</w>
pekellk arrmo</w>
par as
pa'nam en
p atso</w>
ot yenet</w>
orr ten
orr pa'</w>
nom an</w>
neñ ora</w>
nar en</w>
nar e'tenet</w>
n á</w>
n eserrpare't</w>
n ak
map yo</w>
llexh kat
ll añem
km añen</w>
kar pachet</w>
ka'n oth</w>
k apo
eñó to
eñts oxhno</w>
eñet s
eñall e't</w>
esu'mar e't</w>
erothen a't</w>
er a</w>
emh ñot
em atholl</w>
e'ñet he'</w>
cho poen</w>
che ll</w>
ch ñ
ber oxhno</w>
atth ach</w>
att och</w>
ath é'</w>
arr ápo</w>
arr a
ar es</w>
apo err</w>
anapo ech</w>
amesn erret</w>
akey kareth</w>
abhch atanñats</w>
a'n at
a' mh
ñeth ll
yé ñ
yé perr</w>
yor an</w>
yeñotat ene</w>
yexhkat eñet</w>
yetma'n tat</w>
yeser pare't</w>
yerr ma'nen</w>
yemchatset en</w>
ye keyk
yap xhat</w>
ya' k
y otnom</w>
xh axh</w>
w apo</w>
w a'n
u t</w>
u rr</w>
tsache xhno</w>
ts ot
te yena</w>
t ethe'</w>
shé r
she' m</w>
s eñot
rrrr rr
rrrr en</w>
rr ó
rr amoesh</w>
qu ow
péy a'nem</w>
páthe't tso</w>
páthe rrrr</w>
pot ant
ph ayes</w>
ph a'ñema't
pe' m
pe quelquk
pañ em
paso pnar</w>
pa'ñ ach
pa'm e</w>
pa ner</w>
p ets</w>
orrtat eñe'ts</w>
mom áph</w>
mh t
mam eshapa'</w>
ma' pam
ll e'
kë n</w>
ko kpan</w>
kllo yo</w>
eñet he'</w>
esesh a'</w>
en n
ell o'
ech ts
cho papets</w>
che k
ch areth</w>
b es
añ ña</w>
awan ena</w>
ats err</w>
ar eñets</w>
ar e't</w>
apn as
aphth o'teñets</w>
amet eñet</w>
allempo ch</w>
all orok
all och
ach et
a'ph t
a' yenan</w>
ó m
ñ o'ch</w>
yórr tat</w>
yorrtat yes</w>
yokw amper</w>
yethor e'tena</w>
yeserrpar en</w>
yen t
yemhch atse'teñ</w>
y ora</w>
xhn opa'</w>
wañ enet</w>
w um
th órr
th ó
th et
teñ er
te ñet
tat enan</w>
sé p
sell kat
sam o'ts</w>
rrom a'n
rr er</w>
rañth ana</w>
r ur</w>
r pa</w>
qu kequl
pu xh</w>
por ets</w>
poech oña</w>
phok hu
ph apoktat</w>
pe' ch</w>
pe pe
pa këll</w>
p rrr
oxhe r</w>
orr arpa'</w>
ok r
nok thapech</w>
nana qu</w>
n e'n
moé xh
moé ts
mo ets
met en</w>
kosh t
kellk apano</w>
kell meshe
eñ the'</w>
eñ che'</w>
eñ ats</w>
en kan
en ka</w>
en es</w>
em o
e ya</w>
che rra</w>
c om
ath ollpa'</w>
at eñe'ts</w>
arr a</w>
ann at
amp ena</w>
ak ma</w>
ak an
a'ñem ateñets</w>
a'r emh</w>
a' cha</w>
ñ erra'
é s</w>
át ma'n
ápa' yesan</w>
á ñ
yénar et
yé s
yé mh
yor exh</w>
yeño ñ</w>
yesherbes oten</w>
yesherb h
yem am
ye was
yaphchan atene'</w>
y u</w>
y aphth
xhn esh
xharr o</w>
womhch a'teñets</w>
wom ch
tsache ph</w>
tha' pe
ter o'
tem ant
t a'teñets</w>
t a't</w>
sé kllek</w>
shet am
she ña</w>
sh n
sh amh
shamh ña</w>
se yer
se pha</w>
sap xha</w>
s añemat
re ph
r enan</w>
qu owen</w>
posh met</w>
peñ ora</w>
pet ok
perr ma'nom</w>
pem ñot</w>
pekellkë rr</w>
pekellk ayes</w>
pe' mh
pe ok
pat ats
pa' ñ</w>
pa' tho</w>
pa' sucheñ</w>
pa' su'
pa ñ</w>
p sheñ
ot ererr</w>
orrtat sa</w>
orrtat eñets</w>
omarr a</w>
nekellk anom</w>
ne ch
nan á
mer pa'</w>
man esha</w>
m aten</w>
ll y</w>
ko kll
ko k</w>
kell e
hu añen</w>
eñótat yet</w>
eñall the</w>
es en</w>
errats en
erothen the'</w>
en aye</w>
echenan the</w>
e't ets</w>
e' nen
chesh atholl</w>
ch omo
b ets</w>
añ apa'</w>
ayxhat an</w>
ayem pó</w>
ay om
aw oxh
atu n</w>
atth ó
atman' tatareth</w>
atma'ntat o</w>
as pan
apa ñ</w>
apa nesha</w>
am é
allem pu
ach o
a'ñemat e'</w>
a'n enan</w>
a' the'</w>
ñer am</w>
és emh</w>
yéxhkat enet</w>
yu m</w>
yor et</w>
yokw ayer</w>
yok thaphña</w>
yo ly</w>
yesherbeso' teñ</w>
yemhch atset
yechme' terr</w>
ye kllek</w>
yañema't wanom</w>
yam at
xho pa
xh oñ
xh an
wañ ayet</w>
w enet</w>
ut enet</w>
u s
the kor
tharr o</w>
th arr</w>
tema'n teñets</w>
t or</w>
sé ye</w>
so xheñ</w>
sherben the</w>
sh oll
sh o'</w>
serpar et
s ó
s es
s aphth
rr ow
rr oll
rr eñ</w>
rr a'yen</w>
ret eñets</w>
r om
qu ë
pu en
pokte pho</w>
poet aren</w>
poeche mer</w>
phan apnom</w>
pethorr ya</w>
pekellk a'yes</w>
pacheñ er</w>
pa't s</w>
pa't ach
pa' soxheñ</w>
orrrr tat
oche '</w>
o'ch ll
o' xho'</w>
nom a</w>
nok thape'ch</w>
ney xhach</w>
nes pa'</w>
nekellk an
n oxh</w>
n opa'</w>
n erra'm</w>
mom os
mo e'</w>
ll eñ
ll en</w>
koth a'nom</w>
ko' n
kellk u</w>
kelle kpa'</w>
kak á
hu as
g o</w>
eñor etsa</w>
eñeth oll
esh pa'</w>
erro'then cha</w>
err opa'</w>
en all
emhñot emho</w>
echen et</w>
e't yen</w>
cho peñ
ch om
ay atenet</w>
ay aten
ats e'teñets</w>
ashe m</w>
ap ets</w>
ann ata</w>
amp enan</w>
ameth ay</w>
all pon
akellk arreth</w>
ach no</w>
a'pok tateñets</w>
a'meth añpa'</w>
ñot yes</w>
é poxh</w>
yé morr
yom chan
yey xha</w>
yexhkat eñets</w>
yexhkat et</w>
yexh a'yena</w>
yes nom</w>
yep é</w>
yemorr eña</w>
yemchatset eñ</w>
ye ñot</w>
ye pen
yam u'
yam r
yak manesha</w>
y on</w>
y arr</w>
xhe sh
xh axh
we po
w erran</w>
u the
tsomo enan</w>
ts ó
to chpa'</w>
th oñ</w>
t ak</w>
sheñ a't</w>
shekë m</w>
sen teñ</w>
sem hch
semhch a'n
se' mh
s a'm
quelqu ka</w>
pó man</w>
pén a'yes</w>
pá t
pos e'ch</w>
po eñ
po err</w>
ph orrtat</w>
petsots ampes</w>
pathe r</w>
pa'pare xhnu</w>
pa rr</w>
oy wa</w>
ot enan</w>
ot aph</w>
orrt erra</w>
orr ta</w>
om á
o't ene</w>
o'm pa
norrtat yes</w>
nok th
n ell
math aren</w>
mapo et
ma'p tat</w>
llu llu</w>
ll o
koy mho</w>
kow eñet</w>
kow an
ko m</w>
k e</w>
hu en</w>
eñ ach</w>
eso'mar e'
esesh athé</w>
erruthen at</w>
errothen thé'</w>
errothen a'ch</w>
erro'then cha'</w>
err on
ent enan</w>
en the</w>
en ell</w>
e'xh omoet</w>
cho xhno</w>
cho ch
chet ats</w>
che kar
cell ë
b er</w>
añetholl a</w>
ay ó</w>
ath pa'</w>
at arwas
apothe ñe'ts</w>
aphth o't
apa n</w>
anapo eñe'ts</w>
ako pha</w>
ach aña</w>
a'y e</w>
a' yen
ó mh
é xhen</w>
á tho</w>
yé wañeñ</w>
yex kat
yeserrpar ño</w>
yen a'remh</w>
ye yexhc
ye pom
yamots esha</w>
yam ro</w>
yam a't
y och
y apa'</w>
y apa
xhok m
xhe t</w>
wallam ath</w>
w ap
w a
un t
tsots apho</w>
ts or
ts er
ts e'ñ
th r
shé llet
sherenk as</w>
sh o</w>
sh all</w>
s or
rren arot
pórrarr e'</w>
pá cherr</w>
pu en</w>
pu ech
po' ñ
po' m
po ño
po xhno</w>
po ets</w>
pl ato</w>
phañem atwa</w>
ph ayen</w>
peñ oñ</w>
pell k
paso' chen</w>
part aph</w>
pa'the rr</w>
pa'so' chen</w>
pa ph
othe ñ</w>
ot atso</w>
ot as
orr en</w>
omo e</w>
om h
o't on
o yaye</w>
ná met
námet heñ</w>
nar et
n or</w>
n eñor
n e</w>
n as
moen e'</w>
mañ orr</w>
mat the'</w>
m en
llom h
ll ap
ku p</w>
kowen cha</w>
kokll omh</w>
ko nes</w>
eso'marr the</w>
eso'mar che'</w>
eso' the'</w>
es pa'</w>
errpon che'</w>
erra' the'</w>
err u'
err othe
er o'then
enet pa'</w>
emh pa'</w>
e'ñ et</w>
e't at</w>
e' pa'</w>
chésh atholl</w>
chet a't
char en</w>
cellë c</w>
b ar
añ ther</w>
añ mho</w>
ay etsa</w>
at e</w>
asho' sh</w>
as pen
arr o</w>
ar cha'</w>
apokt achet</w>
ampen e</w>
am ar
all m
ag ap
a'phtho't eñe'ts</w>
a'n os
a' puk
a yéxhkat
ó tenet</w>
árr orr
yé pose'ch</w>
yon kll
yom chatseten</w>
yokthape chen</w>
yo qu
yesherb eso't</w>
yeser par
yenpan nen
ye' xh
ye' ch
ye yen
ye ma
yanesh apa'</w>
yan en</w>
xhar enan</w>
xh ó
was err</w>
u' mar</w>
tsell e't
ts on
ts ap</w>
the ñ</w>
the met
thape ch
th ó</w>
th ur
th om
tat nen</w>
tat ho</w>
tat ena</w>
t ets</w>
t erra</w>
t apa'</w>
t am</w>
sot yes</w>
sok thape'cherr</w>
so yam
she r</w>
serrparet at
sellkat e'</w>
s t
s et</w>
s a'phth
rr oth
rr och</w>
rr epa'ch</w>
qu qu
pó k
péy as
pé tsots
pá m
puetsath u</w>
porr oxher</w>
pok shamhña</w>
poerr ar</w>
poe' llom
po' t
po eñ</w>
po ch
phok thapech</w>
phok thape'chen</w>
phañem ach</w>
pha' yenet</w>
pha yenet</w>
ph atsa</w>
ph ath
pey xh
pey a'nom</w>
pet mant
pepe pa'</w>
pe'ñ otnom</w>
parr och
pa'so' moe</w>
pa'par echno</w>
pa'pa këll</w>
pa k
p enan</w>
ot eñ</w>
or ach</w>
o ph</w>
né m
nen t</w>
nekellkan ma't</w>
ne kellkë
nakowen ter</w>
na'n man</w>
mu é
mu en</w>
moer e'</w>
mo s
mo ena</w>
ma't areth</w>
ma' th
ma' ch</w>
m athe
llesen s</w>
kow ameteñet</w>
kosh tall</w>
ko' nespa'</w>
ko moere'</w>
km ath</w>
kellk an</w>
g orr</w>
eñ o'tat
esokop the</w>
esesh apa'</w>
erruthen the'</w>
errpon the</w>
er pare't</w>
epo xhno</w>
en apa'</w>
en amo
e'ñot nena</w>
e'n enet</w>
b esh
añ och</w>
ay óth</w>
aw err</w>
atet t
ashe ñorr</w>
apothe n</w>
ann eñets</w>
an ech</w>
ame't a</w>
am at
all o'ts
agap yeset</w>
a'ph ch
a'bell en</w>
ó ma
ñoñ tso</w>
ñe' ther</w>
ñ orr
átma'n tatareth</w>
án k
yeñ otnom</w>
yes o'ch</w>
yechopa p</w>
yan áp</w>
yam ot
yam o
yakowen ter</w>
ya'k ren</w>
y a'p
xhap ats</w>
xh apoet</w>
well o</w>
w ach</w>
tso wañen</w>
ts ets
ts et
them err
the me't
the kma</w>
th ot
t u</w>
so's porr</w>
shet eñets</w>
sh e</w>
semhcha'n añoth</w>
rr o'ts
rr m
pu et</w>
posh o'll</w>
porr ena</w>
poeth á
poesh met
poech atho</w>
poe'llom er</w>
poe xh
po' llchap</w>
po pr
po ll
phath om</w>
ph oqu
peñot eñet</w>
pech me't
pe' kellka'</w>
pat all</w>
paras yos
pall ta</w>
pach to</w>
pa'm ro</w>
pa' ñer</w>
pa par</w>
p eñts
p eñotat
ot wa</w>
om ent
ok ma</w>
o'ton aya</w>
o't en
o ne
not yes</w>
nekellk athé</w>
nar e'tats
n a'</w>
mo shn
mat arñapa'</w>
ma'n tat</w>
kë tsa</w>
kosh apampo</w>
komon ach</w>
kar pach</w>
kaká xhno</w>
k hu
eñe' ts
eñ err</w>
eñ enet</w>
ey the</w>
eth tena</w>
eso'mar et</w>
esesh athe</w>
esempo' t</w>
esem po</w>
es och
erra' ch</w>
erothen at</w>
er ets</w>
ech ro</w>
ch aña</w>
c ar</w>
aye ma
aye '</w>
ay owen</w>
ay o'</w>
axh nu</w>
aw u</w>
atthe math
ats o'mpa
ats en</w>
atoll ep</w>
athe '
aret t</w>
ar an
aphthot eñech</w>
apexh matharen</w>
ape chen</w>
amo ena</w>
amethe ñ
am á
allow á</w>
alloth pa</w>
alloth o'k
allem eña</w>
all ar
ag apoet</w>
a'yapa xh</w>
a't et</w>
a'n moe'</w>
a'n awa</w>
a'meth ay</w>
ñoth a</w>
ñan um</w>
ñ o'
ép poxh</w>
á tat</w>
yém ch
yé pe</w>
yé moen</w>
yám etha</w>
yá p</w>
yok wa</w>
yexh ka</w>
yes e</w>
yepo xh
yeph ayes</w>
yenare'tats eten</w>
yekellk ayeset</w>
yekellk awanom</w>
yech mech</w>
yech at
ye'xh omoen</w>
ye' nen</w>
ye yem
yat on
y as
y arr
y apoktach</w>
y ach
xho ph</w>
wan ena</w>
wak sho'</w>
w axherret</w>
ut yen</w>
u xh
u ll</w>
tsap ath</w>
tsach o</w>
to pon
thorr eñets</w>
tha'pe cherr</w>
th oño</w>
tat eñ</w>
ta't s</w>
t ella</w>
soch ñet
so s
shont an</w>
sherbeso' tenet</w>
sh ót
sen the
sem ñot</w>
sekellk awanom</w>
s e'n
rrrerr rpar
rroxh o'</w>
rromo enet</w>
rr tena</w>
rr ell
rer en</w>
re xho</w>
quelqu kë
pé t</w>
pé serrpare't</w>
porr oxh
porr en</w>
poey aren</w>
poets átho</w>
poerr arem</w>
poen as
po' ka
po' chopa
po ell
ph ayeset</w>
peñó t</w>
pey om
pen ch</w>
pecellc a</w>
pecellc a'</w>
pe yé
pe anap</w>
pathe rrrr</w>
pas tella</w>
pall err
pa'n en</w>
pa'n emen</w>
pa' yon</w>
pa' cha'</w>
pa sh
oñ pa'</w>
oten ana</w>
otat a</w>
ot err</w>
or ñapa'</w>
oll o</w>
o't ashr
o xhen</w>
not err</w>
nom at</w>
nes e</w>
napo tha</w>
nam eth
nameth as</w>
n och</w>
n eshe
n enet</w>
n e'sh
má tat
mesh ét</w>
mach t
m echarr
m e</w>
ll at</w>
kosht allo</w>
ko ll
ko kmañen</w>
ko ch
k ë</w>
j a</w>
hu añ
eññ añe</w>
eñotat yen</w>
eñ utat
etsr u</w>
et yes</w>
et a'
eseshak pa't</w>
esesh á
errothen atcha</w>
erroten at</w>
err otsen
ep sheño'maret</w>
ent an</w>
ech arr</w>
e' pa</w>
e' morr
e' llom
e ph
e l</w>
cho rr</w>
chet ampes
chekm añ
che r
cha' ña</w>
ch cha'</w>
ch ach
besh llat</w>
b errrr
ayéxhkat areth</w>
ayes e</w>
ay a'</w>
aw erren</w>
at esha'</w>
at ar
apa ch</w>
ap enet</w>
ant a</w>
annat pan</w>
anna't et</w>
ann atet</w>
ana pan</w>
amo eñ</w>
amh ch
amh a'ten</w>
am o'ch</w>
ache '</w>
a'm r
a' ll
a par
ño xh
ñeth omar</w>
ñ oth</w>
épa ch</w>
yé rpa</w>
yor enan</w>
yokw ayerr</w>
yokw anem</w>
yok y
yok th
yeñó ten</w>
yexhk ach</w>
yeth óre'tena</w>
yet mant
yes och</w>
yeph awanom</w>
yen wen</w>
yen wa</w>
yellshe ñech</w>
yekellkë na</w>
yech toñ</w>
yapxhe rrepa'ch</w>
ya kowenet</w>
y awanena</w>
waxh a'
wa'n mer</w>
w á</w>
w aw
tsorr enan</w>
tso ps
tse' m</w>
tsa't et</w>
ts u</w>
ts achpa'</w>
to pam
the k
th urr
th u</w>
th a'</w>
ten er</w>
te ñetspa'</w>
te yaye</w>
tat enet</w>
t e'the'</w>
sé ya</w>
so xhno</w>
so kop</w>
shor anom</w>
she mht
shak o'
serrpar nats</w>
se chen</w>
saphth och</w>
s och</w>
s err</w>
rró pa'
rrr orr
rran eñe'ts</w>
r ets</w>
pu ku
por ena</w>
popo ñe
pon yen</w>
pok thaphña</w>
poen o</w>
poech ñ
po'po ñ
po e</w>
phapa xho'</w>
ph ay
ph arr</w>
ph ap
ph a'ñemat
ph a'ñem
pequelquk a'</w>
pellk atsto</w>
pell om</w>
pekellk anom</w>
pas xhop</w>
pan ets</w>
pach orñapa'</w>
pa'ñach orpa'</w>
pa' ñer
pa' soch
p ateñets</w>
oxh nopa'</w>
otsen pa'</w>
othe s</w>
oshak etso</w>
o't yen</w>
o xhen
ne chen</w>
naphth ot</w>
n oñth</w>
n ath</w>
moth techa</w>
mor onk
mar eñets</w>
man tat
ma'llam h</w>
ma s</w>
m o'm
m o'
lle kellka</w>
ll as
kën et</w>
kën an</w>
kowamp erre</w>
kañthr ethollo</w>
kañ cher</w>
k am
eñotat ets</w>
eño'tat eney</w>
eñ os
eñ ay
exh o'
ets err
esok mañen</w>
eso' kop
eshe' moe</w>
errrr a</w>
err ách</w>
en amoen</w>
em pes</w>
em e</w>
em ar
chetats ó</w>
chen kaw
che m
ch ó</w>
ay och</w>
ay arra</w>
axh pa'</w>
awu' xhu'</w>
ath cha</w>
at yes</w>
at cho</w>
aspeñ tho</w>
arr r
arr orr
arr or</w>
areth ó</w>
ar er</w>
apo xh</w>
apko' ll
ampe ra</w>
am h</w>
allempo ña</w>
all ás
all uth</w>
all u</w>
all erropa'</w>
all epa't
all en</w>
al y</w>
ak ë
a'po theñets</w>
a'k eshe
a' ter
a' koñ
a' k</w>
óm nesha</w>
ó pa</w>
épa s</w>
éch ar</w>
á po
yéñ ora</w>
yé tarwas</w>
yé t
yé po
yokw ampes</w>
yoksh amet
yeñ or
yeñ a</w>
yey um</w>
yey o
yexhe rr</w>
yexh ayena</w>
yewas oten</w>
yet pa'nen</w>
yeserrpar e'tat</w>
yerr ma'
yepen ko</w>
yepar ten</w>
yenpan nenet</w>
yenar e'ten</w>
yekw en</w>
yekw awanom</w>
ye so'ch
ye so'
ye pe
ye keykë
yañema't yes</w>
yap uk
yap chan
yan apo
ya' ts
xhok ma</w>
xhe ñer</w>
xh aya</w>
women kokmañen</w>
w añets</w>
u' ch
tsam ath</w>
tsa't ana</w>
toñer och</w>
torkë '</w>
toma'n tatnom</w>
to pateñets</w>
thorr a'poets</w>
thape cherr</w>
th á
th ets
tat et</w>
t wanom</w>
t anat
sochñet soxhno</w>
so' t</w>
sheñ esh
sha' reph
seyer poerra</w>
serrpar eñats</w>
se yom
sañemat wa</w>
san aph</w>
s aph</w>
s a'ñem
s a
rrarr areth</w>
rr pa'</w>
rr err</w>
rr a'yenan</w>
r u
r eñets</w>
r em</w>
qu k
pé n</w>
pu é
pr esh
popr awa</w>
poeth apo
poen ar</w>
poem ok
poemok er</w>
po'chopa pho</w>
po' ma
po' chets</w>
po xhen</w>
po porr
ph achor</w>
peñót eñ
peyxh aten</w>
petok ake'</w>
petma'nt át</w>
pen a'</w>
pekellk a'nem</w>
pe paso
pe cho
par tena</w>
par o</w>
pap llerr
pan ap</w>
pakll a't</w>
pa'm a</w>
p e'ñot
orr enan</w>
okë nan</w>
o'ts esha'</w>
o' ña</w>
nén orrarpa'</w>
né sen</w>
neshe chep</w>
nem neñ</w>
ne'ñ archa'</w>
ne'sh a</w>
nare't et</w>
nar e'</w>
naná k</w>
nam a'm
n omoet</w>
n eserrparña</w>
n am</w>
mu et</w>
moech atse't
m te'</w>
m exhno</w>
m ell
ll or
ll eth
ku p
kow ampene</w>
ko'n so'
keyk o</w>
kat nath</w>
kar pachto</w>
kak achno</w>
k ó
j em
jem pl
eñor an
eñallet a</w>
eñ ña</w>
eñ éts</w>
eñ ur
eñ a'</w>
etsr opa'</w>
ets tena</w>
ets ets
et the</w>
eso'marr e't</w>
eso'mar thé</w>
esempó 't</w>
erru' then
errrrothen at</w>
err á</w>
en é'</w>
emar e'tateñe'ts</w>
em are't
em a</w>
ech e</w>
e't nen</w>
e'morr tena</w>
e'man ena</w>
e'chorr a</w>
e' m
e jempl
che' tats
ch ac
c ab
b ésemh</w>
añemat e</w>
awan moet</w>
atsompa po</w>
ateth the</w>
at te
as oll
ar ets</w>
aph n
ap s
ap r
ap eth
ap ell
an man</w>
amp enet</w>
amh aten</w>
allem po'ch</w>
ahu o</w>
a'peth o'teñets</w>
a'n ets</w>
a' wa</w>
' teñets</w>
' cha</w>
ó tey</w>
yén ten</w>
yémh ch
yé rrar
yé rr
yé ne'</w>
yé n</w>
yé ma't
yok hu
yeñó ter</w>
yeyenpan n
yeyechkat en</w>
yesherbh aten</w>
yen á</w>
yen tena</w>
yekellk en</w>
yechmet err</w>
ye shont
yañem ach</w>
yapoktat yes</w>
y orrt
xh uch</w>
xh tena</w>
xh o'xh</w>
wapat eññañe</w>
w areth</w>
w a'
ut s</w>
u mar</w>
topon eth</w>
topo' mech</w>
topam ets</w>
thor ats
themerr ech</w>
th oll</w>
th ets</w>
séñ orena</w>
shun te'</w>
shom ash
sh rrr
senthe ph
sent wa</w>
sekellkë n</w>
sa'p ts
s e't
s akowen
rrar o</w>
rr e
péyas ot</w>
pu e
pot ell
popo ño
pokt et
poetsarr oxhno</w>
poenar em</w>
poe'ñ ar</w>
po' se</w>
po xh
pn arr</w>
peñotat errey</w>
pey á</w>
pey um</w>
pey o'm</w>
pepaso ya</w>
pen ayerr</w>
pe' n</w>
pe cheñets</w>
paso paner</w>
parroch ñapa'</w>
pam tharr
pall techa</w>
pa'su' cheñ</w>
pa'namen are</w>
pa' ll
pa par
oñ oth</w>
oñ eñ</w>
oth pa'</w>
ot ets</w>
os er
orr e'</w>
orr ar</w>
omá perr</w>
omo eñets</w>
oche t</w>
o'rr err
o' kan
nemo nerr</w>
nekw en</w>
n ó
n oñ
n eñets</w>
n ath
n apoktat
n a'ten</w>
moen o</w>
mo epa'</w>
mañ orr
mat ar</w>
macht axhno</w>
lle kellk
ll t
ll eth</w>
ll añema't</w>
ll a</w>
ku wen
koñ e
kow et</w>
kellkë ñets</w>
kellk añthe</w>
kashe moets</w>
eñót eñe'ts</w>
eñets pa'</w>
eñetholl a</w>
eñall thé</w>
eñ ut
eth e</w>
et añ</w>
eseshak pa'cha'</w>
esem pu
escha' yekellka</w>
erróthen a't</w>
errothen xha'</w>
errot ent
errochen at</w>
erothen cha'</w>
ent yenan</w>
enet a'</w>
enall e't</w>
chó ph</w>
ché ta'ts</w>
chets orr</w>
chesh a'</w>
ch apo</w>
bh axh
b ech</w>
b e</w>
aññ otenet</w>
axhe ñ</w>
awoxh o'</w>
aw ach</w>
atthó 'ch</w>
atth o'xh</w>
atsorr areth</w>
ats ne'</w>
aton tena</w>
atma'ntat arreth</w>
atarr rr</w>
aspen eth</w>
arra epoxhno</w>
aphth uteñets</w>
anets oxhno</w>
anets omar</w>
am aka'</w>
all uch</w>
all e</w>
ak u
ache mer
a'poktat enet</w>
a'phtho't eñtsoxhno</w>
a'phth o'ch</w>
a'n um</w>
a'mat a't
a' sh
ót a'moen</w>
ó ñ</w>
ñeth cha'
ñet heñets</w>
ñen esha</w>
ñe wa</w>
ñamh apa'</w>
ñamh all
é k
á s</w>
á pexh</w>
á pan
yéthor e'tena</w>
yémch atse'ten</w>
yé ten</w>
yé mat
yu rr
yeñó tat
yeñ o't</w>
yexhkat yenet</w>
yets etha</w>
yeserrpar etyes</w>
yeph á
yeph a'</w>
yen amoen</w>
yemhchatset eñ</w>
yecellc a</w>
ye yexhqu
ye w
ye cheñets</w>
yat o'</w>
ya'ñemat er</w>
ya'ñem a'teñ</w>
y aynat
y ayat
xharr aña</w>
xha'n err</w>
xh é
wañ err</w>
war k
tselle't oph</w>
ts eshar</w>
tho' mas</w>
thar omar</w>
tet otenan</w>
ten om</w>
ten at</w>
tat ene</w>
tamp set
t orr
sé ps
sé kw
sok thapechen</w>
shé ll
shor a'nen</w>
sholl enet</w>
shema sh
she phll
she ko
she chep</w>
sh o'
setma'n tatyes</w>
setma'n tat</w>
serpar eten</w>
ser ta</w>
se yem
san apnom</w>
s apoktat</w>
s apa</w>
rrrr rrr
rr ep
rr apo
ror mo</w>
r enet</w>
pétsots a</w>
pu ena</w>
pu e'
ps ache</w>
poé ñe
pot arwas</w>
posh o'll
porroxh ro</w>
poen ñoñets</w>
poe'ñ rror</w>
po' nare'</w>
po potant
po n</w>
po morr
po choyor</w>
pl anta</w>
phok thap
pha'ñema't nom</w>
pha'kowen twanom</w>
ph ót</w>
ph uk
ph o'ch</w>
pem o
pe ret
pat err</w>
pat e</w>
pan am
pam po</w>
pam pa'
pall tatsa</w>
paj o'</w>
pa'tats chet</w>
pa'so' moeñ
pa'so'moeñ apa'</w>
pa'n eñ</w>
pa' s</w>
pa' poe'</w>
pa' pakll
pa' moer</w>
p ko
othe 'ten</w>
othe 't
oth a</w>
ot yén</w>
os et</w>
orr err</w>
or oth
om moñ
om a't</w>
och ach</w>
o'yos terr</w>
o' wañ</w>
o' pon
o' mh</w>
o' k</w>
o añ</w>
nesh a'pa'</w>
nen wen</w>
nekellk a'</w>
ne wa</w>
ne kllek</w>
nan esha</w>
nam arrém</w>
n um
n o
n añ</w>
máp ñe
mu en
moshn añ
mo ñ</w>
mo eñet</w>
mo e
me' ll</w>
mar katnath</w>
mar e'</w>
ma'll amh
ma' po
m u</w>
m e'teñets</w>
lles eñ
ll eserrpare't</w>
ll e'cheñets</w>
kohu en
kellmeshe ph</w>
kat en</w>
kan oth</w>
k aye</w>
j or
j o</w>
eñts oth</w>
eñotat ay</w>
eñot eñts
eñot en
eñall cha'</w>
eñ chet</w>
eso'kop the'</w>
eshkën och</w>
eshe m</w>
eseshak pach</w>
errpon te'</w>
errats enat</w>
err u</w>
err acha</w>
er a'
epo te'</w>
enn ay</w>
enkan esha</w>
enk apa'</w>
en tena</w>
echts o'tonaya</w>
e't eñet</w>
e't enan</w>
e't areth</w>
e'nen ana'</w>
e'n we'</w>
e'n et</w>
e' po
e pá
ché ñ</w>
che' w
che mh</w>
chan cho</w>
ch ña</w>
ch ayoth
c or
berr rr</w>
b en</w>
añ chá</w>
aye r
awo' cho'</w>
atthe ñapa'</w>
atth u'ch</w>
athe t</w>
ath eth</w>
aran kom</w>
ar e'teñets</w>
aps ach</w>
ap xh
amps et</w>
amet eñets</w>
am pañ
am nar
am e'ñ
allpo ch
alloth ñapa'</w>
alloch pa'</w>
all ant</w>
akan kareth</w>
acheñen esha'ñapa'</w>
acheñ pa'</w>
ache '
ach á</w>
a't pa'</w>
a't ap</w>
a't ampenan</w>
a'm atenet</w>
a' s</w>
a cellc
ñu t</w>
ñot enan</w>
ñet cha'</w>
ñ apá</w>
échen aneñ</w>
é mh</w>
áp yen
ápyen pa'</w>
á tey</w>
yépo moen</w>
yé chope'chen</w>
yom ts
yom por
yeñ em
yeyo cheñ</w>
yeyellsheñ echen</w>
yexh këtsa</w>
yets otsé</w>
yeso'ch yeñ</w>
yeserrrrrrar e't</w>
yen ña</w>
yen at</w>
yemh ñot</w>
yekellk ayes
ye y</w>
yayat erra</w>
yam esen</w>
xh oteñets</w>
wá s</w>
wañ eñet</w>
wathe rpa'</w>
wapo re'tenet</w>
wan emh</w>
w a'yena</w>
ut yes</w>
unt apu</w>
u pa'</w>
tso po'</w>
ts esha</w>
ts at
to t</w>
to pa
thu pa'</w>
thor apo
therr o'
th t
ter ó
tem enk</w>
tak atholl</w>
séps o</w>
su les</w>
su chena</w>
su ch
sok w
so xh
she b
sh u
sh apa'</w>
set arwas</w>
serrpare'tat as</w>
serrar ñats</w>
ser bets</w>
sen athe
se wapat</w>
sas per
s eserrpar
s errrr
rroma'n man</w>
rro'n oll</w>
ro' k
re k
r okë
pékellk a'wa</w>
pé ye'</w>
pá che't
pu pu
pot a'
pon penet</w>
pokt e't</w>
pok rreña</w>
poetsath ópa</w>
poem allant</w>
po'po ño
po' ts
pko kw
phokw a'yes</w>
ph o'
peñ oser
pe't ok
pam o'ts</w>
pa' ch</w>
pa ñet
pa k</w>
pa cho</w>
p et</w>
oñsas omar</w>
oñ o'mar</w>
othe 't</w>
oth e</w>
ot areth</w>
os pa'</w>
orrt all
orr othes</w>
or er</w>
oche 't</w>
o'y tall
o'kan err</w>
o' ñen</w>
o ñets</w>
o yentena</w>
né yet
ná yese</w>
norrtat nom</w>
ney o'che</w>
nekellk ach</w>
ne xhap</w>
nar eñets</w>
n uk
n rrr
mu ech
mo ne'</w>
mo exh
mo et
mhorr ares</w>
met ets</w>
mamesh ach</w>
llu pa'</w>
lle xhat
lle kellkë
ll ot
ll ena</w>
kéll ayo</w>
koñe wo</w>
kowen a't</w>
keykë t</w>
kan xherr</w>
kak axhnu</w>
kak as
k othe
k o'ch</w>
k all</w>
h o
eñoten tsopo'</w>
eñet a'</w>
etholl esha'</w>
esomar cha</w>
eso't cha</w>
eshe ñ
es xh
erron a't
erro sheña't</w>
erra' ts
erothen the</w>
er se</w>
epa ch</w>
ep a't</w>
emaret ateñe'ts</w>
e epoxh</w>
chu ph</w>
chomo er</w>
chenkaw erra</w>
chek meten</w>
che'w amoch</w>
che poen</w>
cab ello</w>
añemat on
añem po</w>
ay ots</w>
aw yeset</w>
atsé rr</w>
ats om
ats e
athu ll</w>
at ont
at er</w>
at '</w>
as rem</w>
arr ñapa'</w>
arr tena</w>
apo eñ</w>
aph ch
ape xho</w>
ap xhenan</w>
ap ret
ana chet</w>
amé theñets</w>
allot pa'</w>
allme' cheñets</w>
allap atserr</w>
all oxh</w>
all as
ak ot
ahu o'xho'</w>
achan këll</w>
ach ka'</w>
acellc areth</w>
ab h
a'yes a't</w>
a't werr
a'po xh</w>
a'po err</w>
a'phth oteñets</w>
a'meth amets</w>
a' th
a part
ós mamoen</w>
ó then
ñé g
ño wapo
ño r</w>
ñ ats
ñ asa</w>
én k</w>
é po
é patets</w>
át eñet</w>
ás pan</w>
áp nom</w>
á r
á cham
yéthor eta</w>
yénar eten</w>
yá t</w>
yot tatena</w>
yonkll emh</w>
yom orr</w>
yom enana</w>
yokw amp
yo s</w>
yo ly
yeñótat eneph</w>
yeyenpann erra</w>
yets ep
yeth ñats</w>
yet man
yesh oñ
yeshoñ e</w>
yerr en</w>
yemhch atse't
yell chep</w>
yekeykë n</w>
yech met</w>
ye' wañ
ye sherrb
ye palltena</w>
ye chena</w>
ye c
yañema't errerr</w>
yan ema't</w>
yan apnom</w>
yamu' ts</w>
yamots esh
y a'ph
xhokm o'ch</w>
xho' ña</w>
xho poer</w>
wan k
wampr at
w át
w o
uthe xhnu</w>
u' ts
u' t</w>
tso y</w>
ts ó</w>
ts or</w>
ts o'
ts axh
tom o'
to'r oñ
the ll
tharr rr
th u'</w>
th ow
th oth</w>
tarwas enet</w>
t ap
t achet</w>
t '</w>
sot et</w>
sok wa</w>
so's po
shor a'nets</w>
shetam tso</w>
shema ke</w>
sheko r</w>
she' rar
she na</w>
shako' ka</w>
sha' kë
sha'kë sh</w>
sh op
sey é</w>
senathe 'ten</w>
sen theten</w>
semh ñot</w>
sa'ñem ach</w>
s a'ñemat
rroll ot
rremo eñ</w>
rr ora</w>
póporr pa'</w>
péy ochach</w>
pé ch
páche't ets</w>
pá '</w>
pu sh
presh ch
potell emh</w>
pot all
pos a'tpa'</w>
pon eñche'</w>
pon a</w>
pomorr eña</w>
pokteth é'</w>
poetsath o'mar</w>
poets arr</w>
poetar eten</w>
poer orer</w>
poechen a'tets</w>
poe par
po'ñ es</w>
po' psheñ
phe kellkë</w>
pha' yeset</w>
pha' rrm
peñ a</w>
petsots é</w>
petmant a't</w>
per a</w>
pen á'</w>
pen e</w>
pen a'yes</w>
pell ta'teñets</w>
pechmet en</w>
pe'n yes</w>
pe' ñot</w>
pe p
pe keykë
pat a</w>
parr o</w>
pap llo</w>
pan nena</w>
pallt ayetsa</w>
pallt ayena</w>
pall a</w>
pach arr</w>
pa't k
pa'so' xheñ</w>
pa'so' cheñ
pa' xheñer</w>
pa monte</w>
pa mo
p tena</w>
ots a</w>
othe chno</w>
oth ñapa'</w>
oten ell</w>
oten apañ</w>
ot werran</w>
ot err
ot er</w>
ot empes</w>
os o</w>
orrtat en</w>
orrtat e'</w>
orret yetsa</w>
orr om</w>
orr an
onañ che'</w>
on kë
ommoñ athpa'</w>
ok ll
o' pano</w>
ném neñ</w>
nok wer</w>
noch e</w>
neñ o'ch</w>
nesh a'ñapa'</w>
nen orrar</w>
ne'n wa</w>
nach orpa'</w>
n é</w>
n eñót
n eñó
n eñe</w>
n atena</w>
n a'
muth tetsa</w>
moé shech
moth roth</w>
moshnañ tsoy</w>
mor o</w>
moechatset enet</w>
moechatse't eñet</w>
mo ell
mo e'chen</w>
mamth uth</w>
ma'th tena</w>
ma' math
ma yen</w>
llé chap</w>
llu llupa'</w>
ll á
koyanesh a'pa'</w>
kowen roth</w>
kowamp erret</w>
koth ape
kor nesh
kely ë
kellkë ñe'ts</w>
kell we</w>
kell e'</w>
kañ t
kas par</w>
he '
eñót eñtsopawo</w>
eñts o'pano</w>
eñoteñts orrom</w>
eñall the'</w>
exho' moenet</w>
exh arr</w>
esésh a't</w>
esu kup
esomar the</w>
eso'mar che</w>
ese'sh at</w>
es t
errrrrrar e't</w>
errrrothen the'</w>
errrrothen cha'</w>
errrrothen a't</w>
errpon och
errpon matthe'</w>
erro'then thé</w>
err epa'ch</w>
er e</w>
er athe'</w>
en yet</w>
en oneth</w>
emaret ateñets</w>
em a'pa'</w>
echen e</w>
e'ñ exh</w>
e'tat enan</w>
e'mar eteñets</w>
e' m</w>
e b
chesh apa'</w>
che me'ten</w>
ch á
berr ta</w>
añ t
añ othe
ayxhat añpa'</w>
aye ñ</w>
ay é</w>
ay atenan</w>
aw enet</w>
atsrre' moet</w>
ats et</w>
ath ó
ateth the'</w>
at ó</w>
aspan axhno</w>
ashe' m</w>
ash an
arr rrr
apoktat et</w>
apht xhoteñets</w>
aph aren</w>
apa wo</w>
ap xhena</w>
anat en
an teñ</w>
an apn
amh phseñets</w>
am ñ
am ena</w>
am athe</w>
allpon mat
all erro</w>
all en
all amet
all ak
all a'</w>
alal al
alalal a</w>
al go</w>
akowen tenan</w>
ak renan</w>
achy o'teñets</w>
achan këll
ach cha'</w>
a't nom</w>
a'po ena</w>
a'pht o'teñets</w>
a'b en
a' yeña</w>
a' p</w>
ór enet</w>
ñé the
ñéthe s</w>
ñeñth cha</w>
ñeñ tt
ñethe kop</w>
ñerra' m
ñ ell
ñ cha'</w>
án xh
án t</w>
á pexh
yé peñ</w>
yoly pa'</w>
yokthapech yes</w>
yokshamet a</w>
yeño serta</w>
yey á'</w>
yexhkat ar
yexh o'
yeserrpar e'tena</w>
yes a</w>
yenare'tats et</w>
yen yo</w>
yen e'</w>
yen arr
yen am</w>
yen a'yes</w>
yemchan añ
yem ñotwa</w>
yem ñoch</w>
yem xh
yeg át
yechme't errepa'ch</w>
yech kat</w>
ye' ñ
ye' kellka</w>
ye poer</w>
yama't orrtat
ya'ñemat err</w>
y a't
xhoñ eneta'</w>
xhorr e'</w>
xhopa s</w>
xheñ eñets</w>
xh ápyenpa'</w>
xh pa'</w>
xh a'ch</w>
wer akë
wepo esha'</w>
wañ a</w>
wat err
wapo tamh
wapat enan</w>
wampr at</w>
w eñets</w>
w an</w>
tsó wañen</w>
tsá cheph</w>
tserr oth</w>
tsell err</w>
tsapo t</w>
tsach p
ts oñ
ts e'teñets</w>
tot ana'</w>
topa sh</w>
to'roñ rexh</w>
thorrapo tets</w>
then an</w>
the pá'</w>
th ro</w>
th ots
teñet o'</w>
te re
te po'
tat ar
tamh peñets</w>
tam phs
t ó
t a'yes
séñ tho</w>
su k
sor e'
som por</w>
shé cheph</w>
shomem tena</w>
sherrb en</w>
sherb es</w>
she mashe
shemashe r</w>
she bh</w>
sh all
señó teno</w>
seserrpar et
serrparñats oth</w>
sekw a'yes</w>
se'n yes</w>
se yum</w>
san rr
s amha</w>
rrerr e'ten</w>
rrenarot ats</w>
rr eñts
rr ath
rr apharen</w>
rr '
r u</w>
qu o
qu ll
póporr och</w>
pén ayes</w>
páth rr
pát e'tets</w>
pám poe'</w>
pu r</w>
pu puñ</w>
poé choyor</w>
pokt akma</w>
poets ets</w>
poetar ey</w>
poerr ar
poc tena</w>
po'm apa</w>
po' señ
po' nena</w>
po papar</w>
po e'ch</w>
pharr otempes</w>
pekellk oñ</w>
pek hu
pech t
pe xhno</w>
pe psache</w>
paxh ar</w>
pats oth</w>
pakll a'ten</w>
pa'pa kell</w>
pa' yes</w>
pa pakllo</w>
pa moer</w>
p nom</w>
p emh</w>
oñ e
othe xhnopa'</w>
ot áteñet</w>
ot tats
ot t
ot as</w>
osh pa'</w>
os apa'</w>
or exh</w>
om at</w>
om a'y
oll esh
ok sh
ok a</w>
och o</w>
o po
o kop</w>
nok thapechen</w>
nerr werro</w>
ne' shonta'</w>
ne che
neche merpa'</w>
n o'
n eth
n at</w>
n apo'
mé ll
moth tet</w>
mon enan</w>
momos ak
mo pam
mo etsa</w>
mer ena</w>
mañ ell
mañell apa'</w>
ma'yarr pa'</w>
ma' the
ma' kot
m o'r
m ey
m em
m athe'</w>
m at</w>
llok llas
lleseñ s</w>
ll om</w>
ll eserrpar
kë '</w>
ku ñ
ku r
koñ éth</w>
koñ e'th
kow a'yen</w>
kow a'nenan</w>
kor nesha'</w>
kor eta'
ko nareñets</w>
ken kewash</w>
kellw eshe'moe</w>
kellk ats</w>
k e'ch</w>
k a'ye</w>
j u
hu apo
eñóto xh
eñor eñtso'pano</w>
eñ o'tene</w>
eñ err
ets á</w>
ets ot
etat ey</w>
etat as</w>
et yena</w>
eseshá k
esesh axh
esem p
ese'sh achaña</w>
es theña</w>
erróthen cha'</w>
erruthen the</w>
erruthen cha'</w>
errrr o'then
errrr athe'</w>
erro' thet</w>
erra'ts eñthe'</w>
err ampañ
er pa'</w>
epa' cha</w>
ek othen
e't wa</w>
e'po mar</w>
e'mar e'tateñe'ts</w>
e' then</w>
e' ll
e wan
cho poeno</w>
cheshan esh
chen at</w>
che rr
chac ra</w>
b e'then</w>
añemat eñtso</w>
añ pa'
ayer poxhen</w>
ay cha</w>
ay aye</w>
awan um</w>
aw och</w>
atth och
atth e</w>
atsn añets</w>
ats opa'</w>
ats nat
athe r</w>
at tt
at to</w>
at nom</w>
at ech
at che
arrorr emh</w>
areth u</w>
ar ot</w>
aphtho't eñe'ts</w>
ap xhe
anaten ya</w>
an o'ch</w>
ampes nom</w>
ampen aya</w>
amp erret</w>
amo enan</w>
am ath</w>
allu wen</w>
allorok mo'</w>
allo huen</w>
allar athe</w>
all y
all xha'</w>
akellk arech</w>
acho per</w>
ache ñe
ach ñapa'</w>
ab ell</w>
a't ach</w>
a'sh os
a'po c
a'phth oten
a'n an
a'mat amper</w>
a' tech</w>
ñowapo th</w>
ño chñ
ñethe r</w>
ñethe mpo</w>
ñet a</w>
ésh kën
én enan</w>
é pan</w>
é l
él el
élel e</w>
á rr</w>
á poech</w>
á ll
á cha</w>
yé neñ</w>
yé ma'teñets</w>
yé cheñets</w>
yát erra</w>
yá teñets</w>
yor e't
yom yát</w>
yom h
yoky ayen</w>
yokthapech wanom</w>
yeñot at</w>
yeyen poeñ</w>
yeyellsheñ e'chen</w>
yey ur
yexkat yen</w>
yexhkat yeset</w>
yexh këna</w>
yeshont á</w>
yesh pen
yeshpen at</w>
yerr orre'</w>
yenar em</w>
yen tat</w>
yen oñ</w>
yemhch atse'ten</w>
yem ñotyes</w>
yell nesha'ñapa'</w>
yechmet at</w>
yechme't nen</w>
yech ten</w>
yech me't</w>
ye' pena</w>
ye so
ye pech
ye cellcë
yañem atwa</w>
yapoktat eñ</w>
yapchan a'tena</w>
yap pa'</w>
yap ateñ</w>
yanesh as</w>
yamots esha'</w>
yam o'ch</w>
ya'n etsro</w>
ya' mh
ya' ch
ya b
y óten</w>
xho' p</w>
xho po</w>
xhnesh atena</w>
xhesh an
xhe ph</w>
xhe '
xhat añ</w>
xhap yen</w>
xh u'ch</w>
wom ek</w>
werakë mh</w>
wat errach</w>
wank enet</w>
w eney</w>
ut eney</w>
tsá xh</w>
tser to</w>
tsach moro</w>
ts ar
thó sen</w>
thor eteñets</w>
then cha</w>
themet tsowañen</w>
theme't tsówañen</w>
thape' cher</w>
th o'k
th an
ten á</w>
temant en
tats rena</w>
tat num</w>
t á</w>
t wa</w>
t añ
sé pha'nem</w>
sherbes otet</w>
she yom
she nesha'</w>
she nan</w>
sh ow
señó ten</w>
señ oll
serpar e'tat
sen tat</w>
sekw a</w>
sekellkë rerr</w>
sakowen terr</w>
sa'm átat</w>
sa kowenet</w>
s ám
s oten</w>
s o</w>
s eth
s atsa</w>
s apho</w>
s aph
rrot no</w>
rror en</w>
rret e'</w>
rrak ë
rr oll</w>
rr em</w>
rr ar</w>
rr all
rem oshpa'</w>
rant ó</w>
rant u</w>
r eñ</w>
pók te'the'</w>
pá rr
pu echen
pu e'</w>
poño xh</w>
poé n
poé mok</w>
por etso</w>
pokoll axhno</w>
poem ar</w>
poechen atets</w>
poe pa'ñer</w>
po'po cheñ
po' reren</w>
po ñer</w>
po enan</w>
phok thapechen</w>
pha'kowen t</w>
pha' yeñets</w>
ph ayena</w>
ph axh
ph a'nom</w>
ph a'm
peñó ten</w>
pets ot</w>
pet anat
peph ayen</w>
pent wanom</w>
pen anen</w>
pekellk er</w>
pe't mant
pe'n ayes</w>
pe yexhkach</w>
pe pen
pe pakëll</w>
pe kell</w>
pe c
pay tena</w>
pathet es</w>
paso' chéñ</w>
par tsesha</w>
par e</w>
pan en</w>
pam oth
pamoth roth</w>
pa'tats tat
pa's m
pa'cheñ er
pa'cheñer nesha'pa'</w>
pa' xhn
pa' mon
pa rraro</w>
pa pech</w>
oth ets</w>
oten en</w>
oten a'</w>
ot yes</w>
ot teñ
ot e'</w>
ot anna'tet</w>
orrtat et</w>
orrt á</w>
orr nama'm
or ko'
or en</w>
om te</w>
okll arrém</w>
oche xhno</w>
o'tsen ña</w>
o'tashr e'ten</w>
o't et</w>
o'rr tena</w>
o' ñ
o' cha</w>
nom et</w>
nep é</w>
nent nom</w>
nekw ampes</w>
nekellk athe'</w>
nañem ach</w>
napa xho</w>
nanat nena</w>
nanak o'ch</w>
nan a'k</w>
na't enet</w>
n orr
n añemat
má s
má poet</w>
mat o</w>
mat a'</w>
man o</w>
ma't enan</w>
m ó
m hu
m ets
m apa'</w>
lle p</w>
lle kw
ll yes</w>
koñeth ó</w>
koyanesh atholl</w>
koshe n</w>
kor nesha</w>
kor nan
ko llan
ko chell</w>
kellk enet</w>
kellk e</w>
kas en</w>
k ánxh
jor e'</w>
j o
hu w
eñts u</w>
eñot oxhen
eñot eñtso
eñall thé'</w>
eñall e</w>
eñ aly
et eth</w>
et err</w>
et e'th</w>
esthe' ñá</w>
eso'marthe' ñá</w>
eso'mare' cha'</w>
eso'mar te</w>
eso'mar echa'</w>
esh pem
esesh a'cha'</w>
errrr a'
err or
erpon a'ch</w>
epé xhno</w>
ent apan</w>
en ma'ten</w>
en enan</w>
em pa'</w>
ell ena</w>
ejempl o</w>
ech ótenet</w>
e'ñot eñech</w>
e'ch areth</w>
e' no</w>
e a</w>
ché n
che path
che cho</w>
cha' kmath</w>
cha' k</w>
ch ách</w>
ch ok
c m</w>
c añther</w>
c ant
c an
berrrr oxhno</w>
añ the
ayaten ana</w>
ay át
ay othe
awath pa</w>
aw athe
atthe 't</w>
atso'mpa po'</w>
atsn e</w>
atset enet</w>
atserr tena</w>
ats teñets</w>
atoll pa
atma'ntat arech</w>
athó ll</w>
at eñech</w>
at chó</w>
as o't</w>
as o
arr o'</w>
ar apo
ar ach</w>
apoktañoñ tatareth</w>
apoktat eñets</w>
apo t
apech etsa</w>
ap chen
aná ph</w>
anom a</w>
anna't a</w>
anapo eñets</w>
anapn omoet</w>
an aph</w>
amh ps
am phs
al élele</w>
akowen tatene</w>
achet alle</w>
ab ech
ab e'th
a't anat
a't an</w>
a'puk tatareth</w>
a'po tatho</w>
a'phch o'teñets</w>
a'k esh
a' xh
a' pen
a c</w>
ñochñ aka'</w>
ñeth tat
ñet ll</w>
ñen ye</w>
ñ o'tenet</w>
ñ o'rr
éch tsoth</w>
át eney</w>
yénar e'terr</w>
yé pen
yé paklla'ten</w>
yáñem aten</w>
yomh a</w>
yok thapña</w>
yok ch
yeñó ten
yeñot eñ</w>
yeñ ur
yeñ ech</w>
yeyer poerra</w>
yey ómnesha</w>
yexhkatar exhno</w>
yexhkat e</w>
yeth orr
yet antat
yes atset
yep errerr</w>
yen oñth</w>
yen ayeñ</w>
yemh ñoten</w>
yemh otwa</w>
yellshe ñets</w>
yekellk anom</w>
yek amp
yek am
yegát erre'</w>
yeg atyen</w>
yech me'tat
ye rrrr
ye quelquka</w>
ye pén</w>
ye pe'</w>
ye chen</w>
ye bar
yañemat yes</w>
yañemat ererr</w>
yapoktat er</w>
yapo the</w>
yaphchan tena</w>
yapa xho'</w>
yanesh ay</w>
yanesh axh</w>
yamots eshapa'</w>
yam atset</w>
ya'ñem a'ten</w>
ya' yáterra</w>
ya yenan</w>
y órenet</w>
y opa'</w>
y o'xh
yo'xh teñ
y a'ñema't
y a'm
xhó papets</w>
xheñ atse't
xhar apechetsa</w>
xhap nerr</w>
xh ó</w>
xh o'ch
xh etso</w>
wá ñ</w>
womh cheñets</w>
womch a'tnom</w>
wañ th
waxha' tatsa</w>
waterr a'</w>
wapat an</w>
wan um</w>
wallam a'th
w ok
w et</w>
tu puena</w>
tsorr ot
tsella' te
tsam em
ts amn
to'r enma'ten</w>
to ko
tho'k ayé</w>
theñ ke'ch</w>
thek mo'</w>
the rr</w>
thapech yes</w>
th otan</w>
th añ
thañ ñapa'</w>
tere pe'
tanat eret</w>
t ur
t an</w>
sérrpar etatey</w>
sékellkë n</w>
so's penanen</w>
shrrr ben</w>
sheñ orr
sherben eythe</w>
shephll e'chen</w>
she ke
sheke m</w>
sha'reph ñapa'</w>
sh ánk
sh o'r
sh llet
serrpare't eñech</w>
sem ellena</w>
se' chenan</w>
s otnom</w>
s othe
s anna't
s '
rrr orrtena</w>
rrr arr
rrorr o't
rrorr anets</w>
rror teñeto'</w>
rro po
rr os</w>
rr ayen</w>
rr am</w>
rokë p</w>
ret ena</w>
re xha</w>
r osapa'</w>
r amoesh</w>
pé kellkë
páth et
puk tetsa</w>
pu rr</w>
preshch etholl</w>
pot ets</w>
pot et
pok ar
poerr oll
po'pocheñ o</w>
po' karpach</w>
po eth</w>
po eserrpar
phá tey</w>
phok chap
phaná pnom</w>
pha' yomyát</w>
ph all
pey o'che</w>
pey a'nem</w>
pets uts
petanat ats</w>
per e</w>
pell exh
pek kel
pe'tmant a'ch</w>
pe womcha'tnom</w>
pe qu
pe p</w>
pe kel
pe a'nem</w>
pañ ema't</w>
patats tat</w>
pat arrer</w>
pas u'
par an
paph llo</w>
pan arr
pam ro</w>
pacheñ en
pacheñen eshar</w>
pa'xhn o
pa't o'</w>
pa's me'll</w>
pa'cheñ err</w>
pa' chñ
pa cha</w>
oñ ta</w>
oy wapa'</w>
oxhe ñotha</w>
othen a</w>
ot ña</w>
ot eñet</w>
ot er
osh apa'</w>
ortat yeñe'ts</w>
orrtatyeñ e'ch</w>
orrtat yenet</w>
orrtat ene</w>
orrtat an</w>
or an</w>
oment a</w>
om a'th</w>
ollesh atyen</w>
o'ch tena</w>
o' tatsrena</w>
o l</w>
ney och
nen athe'</w>
nekw anemh</w>
ne yaph
ne chen
ne asot
neasot nena</w>
nam h</w>
n the</w>
n eney</w>
n ateñets</w>
mátat err
muth tena</w>
mu rr
mu eñets</w>
mu er
moeñ enet</w>
moch tetsa</w>
mo parr</w>
mo pan
mh u</w>
me't areth</w>
me' ll
marr ashem</w>
mar eya</w>
mamo eth</w>
mamesh a'ch</w>
mall e'chen</w>
ma'po che'tats</w>
ma'p rexha</w>
ma'llamh pan</w>
m erren</w>
m ech
llok w
lle këna</w>
koñeth atets</w>
kowan pene</w>
koch math</w>
ko yanesha</w>
ko s
ko n</w>
keyk a'</w>
kellk arr
kell err
kat enan</w>
kapo e'no</w>
kam poerr</w>
ka jore'</w>
k apo'
jos é</w>
g orrpa'</w>
eñóto xhen</w>
eñor eñe'ts</w>
eñor anatenya</w>
eñe'ts pa</w>
eñ th</w>
ets apa'</w>
et nena</w>
et ateñets</w>
esu mar
esokop cha</w>
esok pat</w>
eshpem a'th</w>
esh a'pa'</w>
eseshakop the</w>
esesh aw
esesh atcha</w>
esempo t</w>
erró thet</w>
erruthen thé</w>
errothen chá'</w>
erroten a't</w>
errochen che'</w>
errochen a't</w>
err ach
epe chenan</w>
ent nomoet</w>
enoñ aret</w>
enet the'</w>
em ñot
em otenana</w>
ello' yeth</w>
ell ep</w>
echenan o</w>
echarr xhop</w>
e'ñ uteñets</w>
e'chorr enan</w>
e'ch wanom</w>
e xhenan</w>
com ech</w>
chó papech</w>
cho' s</w>
chets u</w>
chemet ene</w>
che'tats o</w>
che y</w>
che xhno</w>
cellcë t</w>
cant ar</w>
c op</w>
c oc
b ol</w>
b en
añeñ po
añ ñotenan</w>
añ the'</w>
añ o'ch</w>
añ en
ayes wa</w>
ayem po
ayat po</w>
ay pa'</w>
atthemath tetsa</w>
atthe math</w>
ats e't</w>
atma'ntát aretho</w>
atma'nt arr
ath oy</w>
at é</w>
at eñetspa'</w>
at ap
as och
apo eñets</w>
apo enan</w>
apech nom</w>
ap ku'
ap kom
ap e</w>
an orr
an moet</w>
an enathe</w>
amphs an</w>
amo er
am e'
am arr
allempo ñapa</w>
all atserr</w>
all aph
al eya</w>
ak ñeth
ag ë
ache reth</w>
ache 't
ach ll
abhch anneñets</w>
a'tanat a</w>
a't mantat
a'ph tena</w>
a'm echeñets</w>
a'k ach</w>
a' wen</w>
a xhenet</w>
a l</w>
ót eñe't</w>
ót aph</w>
ós an</w>
ón eth</w>
ómh chateñets</w>
ómh a</w>
ó s</w>
ó ret
ñu ñ
ñoth the'</w>
ñeñth pa'</w>
ñeñ en</w>
ñets o</w>
ñethtat eñet</w>
ñethcha' ll
ñeth o'mar</w>
ñeth o'</w>
ñerra' n</w>
ñ exhno</w>
ñ e'chen</w>
ñ '
ñ' eth</w>
éshkën och</w>
é ñ</w>
é xhenan</w>
é th
é po'
árrorr mexhno</w>
áph tho'
áphtho' tena</w>
ám pes</w>
á ña'</w>
á ko'
yé soll
yé met</w>
yor en</w>
yom pere</w>
yom h</w>
yokwamp se</w>
yo'xhteñ oth</w>
yeñó terr</w>
yeñ oranma</w>
yeñ e't</w>
yeyexhkat wanom</w>
yey xhat
yexhkat eñ</w>
yexhe ñe'ts</w>
yexh oñeñ</w>
yeth ro</w>
yeth orrena</w>
yet or
yet err</w>
yeso' chen</w>
yesherb esu'
yesherb esot</w>
yes err
yerr ma</w>
yerr eñ</w>
yer pa</w>
yepoxh é</w>
yephá yen</w>
yeph á'</w>
yeph a'yen</w>
yepar tseshar</w>
yent yes</w>
yenpan nena</w>
yenaret atseten</w>
yen teñ
yenteñ pa'</w>
yen tateñ</w>
yekw ayeswa</w>
yech k
yebar co</w>
ye'n wanen</w>
ye' yexhkaten</w>
ye' chorr
ye yérpa</w>
ye yomena</w>
ye por
ye pa'n
yepa'n ena</w>
ye ll</w>
ye ko'nso'
yeko'nso' teñ</w>
ye che
yaññ o'tyen</w>
yaññ o'tatsrena</w>
yap h</w>
yamot allen</w>
yam ret</w>
yam och</w>
yam aten</w>
yak l</w>
yab ella</w>
y ótnom</w>
y ók
y atena</w>
y a'met
xho ye</w>
xho poech</w>
xhnesh are</w>
xheñatse't tso</w>
xharr rr
xh o't</w>
xh a'ten</w>
wát erra</w>
womh cherra</w>
womenk na'n
womch aten</w>
way ollpa'</w>
waw are't
was rros</w>
wapo e'th</w>
wan et</w>
wallam a'th</w>
wa otena</w>
w amoen</w>
urr a</w>
tó panets</w>
tsách phar</w>
tsuts met</w>
tso pats
tsen o</w>
tse'ñ arr</w>
tsap u</w>
tsamem teyena</w>
tsa't etsa</w>
ts a'ch
tor e'
topo' mh</w>
tom an
tom a't
toko yo</w>
thow ana
thorrapo tetsa</w>
thorrapo tena</w>
thorrapo ta</w>
thets en</w>
tharr umar</w>
thape ñ</w>
thap h</w>
th ok
th o'tet</w>
teñet a't</w>
temanten tso</w>
tat eñe'ts</w>
tarwas enapa'</w>
tan eñets</w>
tam ell</w>
t ñets</w>
t épa
t ém
t um
t osa</w>
t ayesa</w>
t asher</w>
t a'ch</w>
sok thapech</w>
so xhena</w>
so rr</w>
shón tena</w>
shom emh
shom all</w>
shllet aph</w>
sheyom ache
shetamo éts</w>
sherb eñe'ts</w>
she ñ</w>
she m</w>
she '</w>
sh pa'</w>
sh a'r
señot eñe't</w>
seyem pare't</w>
set mantat</w>
serrparñ acho</w>
sent e</w>
sent are't</w>
sem ñoten</w>
sech me'ten</w>
sech etsapa'</w>
se'mh ñochñaka'</w>
sanna't et
san yakl</w>
sa'pts ets</w>
sa' s</w>
s áph</w>
s ateñ</w>
s apan</w>
s achor</w>
s a'ten</w>
rrópa' ptena</w>
rro pan</w>
rrerr amha</w>
rrarr a</w>
rrar exhno</w>
rr othe
rr och
rr o'ts</w>
rr eth</w>
rr e</w>
rr a'th</w>
ran sapan</w>
r ot
r oshapa'</w>
r etho</w>
r e</w>
pó moeñets</w>
pén a'</w>
pékellkë rr</w>
pé ta</w>
pé rren</w>
pá rro</w>
ps ap
poén pa'ts</w>
poé sh
potet namh</w>
pota' perr</w>
posh met
poqu tena</w>
popoño ñeth</w>
popoñe chen</w>
pokte cha</w>
pokt ená</w>
pokoll oth</w>
pok wa'</w>
pok tat</w>
poetsath oth</w>
poets a'</w>
poesheñ arr
poer exharr</w>
poer a</w>
poechñ emh</w>
poech moñ</w>
poech ath
poe' tseno</w>
poe yexhkatarexhno</w>
poe xhen
poe kañther</w>
poch kar</w>
po'poñ are</w>
po'po che
po'poche ñoch</w>
po'n pen</w>
po'n apenet</w>
po'ka she'm</w>
po' ño
po' ñenye</w>
po' t</w>
po' ser</w>
po' potant
po ts
po th
po ten</w>
po porr</w>
po p
po es
phañem a'
pha'n echro</w>
ph natena</w>
peyé rpa'</w>
peyoch anemh</w>
peyen pare't</w>
pey o'ch
peyo'ch ayes</w>
pey o
pets apsach</w>
petma'nt axh</w>
pet ña</w>
pes erpare't</w>
pen ét</w>
pen a'nem</w>
pem orr
pemorr ent
pekkel kë
pekellkë n</w>
pechme't ena't</w>
pech met</w>
pech me't</w>
pe'n werr</w>
pe'mh ñoch</w>
pe'm ñoch</w>
pe' mar
pe xho</w>
pe g
pay tetsa</w>
pay ara</w>
pats otsenpa'</w>
pats o'tsen
patso'tsen pa</w>
path o
pat y</w>
pash op</w>
parr othñapa'</w>
parr e'm</w>
parasyos oteñ</w>
paran pano</w>
par ten
par etspa'</w>
panarr mer</w>
pamtharr pa'</w>
pall teno</w>
pal o</w>
pa'xhno pho</w>
pa'tats tato</w>
pa'tats pot</w>
pa't o'ch</w>
pa'soch éñ</w>
pa'sm ell</w>
pa's omoe</w>
pa'par eshem</w>
pa'chñ ner</w>
pa' shechep</w>
pa' sh
pa' poxhno</w>
pa' po</w>
pa' par</w>
pa rrrr
pa poech
pa pakll
pa cherr</w>
pa c
p p
oth etañ</w>
otat yeñets</w>
ot sokop</w>
ot neney</w>
ot a</w>
os car</w>
orrten ena</w>
orrtat ll
orrt achet</w>
or anena</w>
on ten
on om
on ach</w>
on a</w>
om en</w>
om a</w>
och tatsa</w>
o'xh tena</w>
o pa'
o atthoch</w>
né me'
norrtat the'</w>
norrtat nom
nom porpa'</w>
nom por
no'ch oma'th</w>
neñ ot</w>
ney xhat</w>
nets omoen</w>
net ma'n
nen oñ
nem hch
nemhch a'ten</w>
ne keyk
nañem aten</w>
narr mets</w>
nare'tats etenet</w>
nare't enan</w>
nam ata</w>
nak ñe'ther</w>
nach porrena</w>
nach ka'</w>
nach ar
n añets</w>
n arr</w>
n apret
n a'nom</w>
mátaterr yeterr</w>
má sen</w>
mu th</w>
mu e</w>
moé narmech</w>
moé n
morr eñts
morr e
moronk en</w>
mon e'th</w>
moen ené'</w>
mo po
mo chor</w>
met an
men esha'</w>
mecharr oyaye</w>
mañ o</w>
mashe ñet
mam oche'</w>
ma'yarr as</w>
ma'p sheñ
ma' ñor</w>
ma' patets</w>
m ón
m etholl</w>
llu mh</w>
llo ko
llll y
llekellkë n</w>
lle c</w>
ll ap</w>
ll ak
l as
kéll pacho</w>
kw a</w>
ku' nes</w>
koñeth a</w>
koyanesh are'</w>
kow ayese</w>
korr errach
kom pare</w>
ko xhneshatena</w>
kll e'</w>
key é</w>
kellkë ñet</w>
kellk anet</w>
kell pa'</w>
kell ek
kat eñets</w>
hu o</w>
hu ak
gat yes</w>
eñót añ</w>
eñot aten</w>
eñallet ena</w>
eñ an</w>
exhe nan
exhe '</w>
ewan kareth</w>
et o'</w>
et er</w>
esu' cha'</w>
esthe' ña'</w>
esomar e't</w>
esoch cha'
eso'mar xha'</w>
eso' chaña</w>
esha't ame'
esh o'
esh kë
eseshaxh not</w>
esesh ac
es ém
es omarr
erru'then at</w>
errrrothen the</w>
errpon 'cha</w>
errothen ach</w>
err aya'</w>
ero'then at</w>
er par
er exh</w>
epá phnatena</w>
ent o</w>
ent eñ
ent enet</w>
en otat
en ene</w>
em psap
ekothen a'pa'</w>
e'ñ e'
e'man enet</w>
e' sh</w>
e' pe</w>
e' man</w>
e' cheñech</w>
e pech
cho pechen</w>
cheñ et</w>
chet ampeñets</w>
chemet et</w>
che mo
chat ats</w>
ch aso't</w>
ch apo
ch a'ñ
c ma</w>
berr or</w>
bar b
b exh
añem ateñets</w>
añe xhnopa'</w>
añ é</w>
añ che
ayát enana</w>
ayoth o'</w>
ayes eth</w>
ayema ñeth</w>
aye ret</w>
ay ots
axhe rra</w>
aw ot</w>
atth u'</w>
atte kmach</w>
atsrre' ma</w>
ats o
ateth thé</w>
atet enan</w>
atarwas añ</w>
atarr the</w>
at cho'ch</w>
at aya</w>
at as</w>
at annenet</w>
ash ape
as ret</w>
arr ots
arr et</w>
arr apu</w>
aret enet</w>
aret at</w>
ar echo</w>
ar e'tena</w>
apoktañoñ tareth</w>
apo' cheñets</w>
apnas et</w>
aphthot eñe'ts</w>
aph á</w>
apell cherra</w>
apchen a'ts
apa ch
ap las
anorr xhenet</w>
anets opa'</w>
anat ene</w>
ana r</w>
an um</w>
an ja</w>
an erret</w>
an cha'</w>
an atenet</w>
an all
amn at</w>
amhch a'n
amh a't</w>
ame't eñet</w>
ame't ampera</w>
am ámpes</w>
am eñenet</w>
am ech</w>
am e'tena</w>
am a'ten</w>
am a't
aly mpo</w>
alló tho'kayé</w>
allotho'k a'yeña</w>
alloth cha'</w>
allepa't och</w>
allempo pa</w>
allem eñach</w>
allamet ets</w>
all otsen</w>
all ots
all om
ak ashem</w>
ak ar</w>
achankëll pa'</w>
ach ta'
abhch ateñetspa'</w>
ab e'</w>
a'y po'ñenye</w>
a't ña</w>
a't enan</w>
a't e</w>
a't ana</w>
a'pth óteñe't</w>
a'po th
a'n erran</w>
a'methe n</w>
a'keshe na</w>
a' yer</w>
a' qu
a yen
' ñoththe'</w>
órr enet</w>
óma chena</w>
ók r
ók a'k
ó teñets</w>
ñé ts</w>
ñot an</w>
ñeth arach</w>
ñ othe'</w>
épo' mar</w>
ép shemht
én oñta</w>
é ñech</w>
é pha'nem</w>
áxh e</w>
á ñotan</w>
á teñets</w>
á tat
á she
á pha</w>
yés o'ch</w>
yés ech</w>
yém napret
yémnapret eñ</w>
yé klloyo</w>
yát ap
yum neñ</w>
yot wan
yorrt át</w>
yorr tach</w>
yorr eññ
yomchan añoth</w>
yom poer</w>
yokthapech nom</w>
yokth anom</w>
yok thape'cherr</w>
yoc w
yeñóten the</w>
yeñó teñ
yeñot yes</w>
yeñem at
yeñemat wanem</w>
yeyexhkat ar</w>
yexkat an</w>
yexh oñen</w>
yexh at</w>
yex qu
yets oten</w>
yetmant ach</w>
yethor eto</w>
yeth pa'</w>
yetantat err</w>
yet poen</w>
yet pa'yes</w>
yesatset err</w>
yes enpa'</w>
yerrma' yeñ</w>
yerr e'</w>
yerr as</w>
yerr amámpes</w>
yer moen</w>
yeph á</w>
yeph anem</w>
yenaret err</w>
yenaret atsen</w>
yen yen</w>
yen amoeñ</w>
yen a'yen</w>
yemchatset en
yemchan at</w>
yem wa</w>
yem o'tene</w>
yem nen</w>
yekw ayerr</w>
yekw a'tanata</w>
yekellkë ñ</w>
yekellkë rerr</w>
yekamp rropan</w>
yek hu
yeg atas</w>
yech ót</w>
yech ets</w>
yech atañ</w>
yecellcë n</w>
ye'ñ oranena</w>
ye'chorr e</w>
ye'ch metat
ye' ñot
ye' yatena</w>
ye' soch</w>
ye' na</w>
ye yellsheñech</w>
yaw are't
yaware't erra</w>
yapoktat nom</w>
yaphchan a't</w>
yap xha'</w>
yanapo em</w>
yan ate</w>
yamots pa'</w>
yam uts</w>
ya'ts naten</w>
ya't amnat</w>
ya'p sateñ</w>
ya'met aten</w>
ya' yomena</w>
ya' k</w>
y oxh
y othe
y apothen</w>
y aphthot
yaphthot yes</w>
y a'ñ
xhorr maño</w>
xhor e'tatenan</w>
xho'ch ka'ye</w>
xho ya</w>
xho pe'
xhet eñ</w>
xhet ena</w>
xhen apa'</w>
xhaxh asot
xhaxhasot e'</w>
xharr am
xh u'
xh aren</w>
x no</w>
wum enk</w>
womh chena</w>
well metholl</w>
wañ erru</w>
wañ e</w>
wañ anatenet</w>
waware't osa</w>
wat anna'ta</w>
was et</w>
was e't</w>
wark a'ph
war ena</w>
war comech</w>
wapo enet</w>
wall ma'th</w>
wak sher</w>
w ómhchateñets</w>
w é
w aqu
w a'nem</w>
uñ u</w>
urrtat yeñe'ts</w>
urr tat</w>
ur pa'</w>
tépa sh
tém enkapa'</w>
tsách ph
tsorr e</w>
tsops aten</w>
tsom tanateret</w>
tset e</w>
tsach pe'
tsa't ena</w>
tsa'ch pho</w>
ts urr
ts oxhno</w>
ts ep
tsep enan</w>
tot osan</w>
tot namata</w>
torkë ñ</w>
torkë n</w>
toma'n tatenet</w>
thórr ena</w>
thá pe'
thur e'tenet</w>
thu a</w>
thorr rrapo
thorr apo</w>
them at</w>
thell the
thellthe ll</w>
the ñá</w>
the pell
tharr o'tsenña</w>
th ót</w>
th u'
th añ</w>
th aye
th atenet</w>
th aret</w>
tet totosan</w>
teró pexh</w>
terr eth</w>
tero' pexh</w>
ten omo</w>
ten ena</w>
tema'n t
tat er</w>
tat ene'</w>
tat enana'</w>
tat arreth</w>
tat a</w>
tarwas ats</w>
tamp erran</w>
tamh pena</w>
tak sam
t rrr
t eña</w>
t eth
t ant
sép erro</w>
sékellkë r</w>
sé kellka'</w>
sé kellk
su' s
soyam h</w>
soyam ets</w>
so'ch ñetso</w>
so' teñets</w>
so' chen
shér a'
shéra' re
shéllet ap
shé she
shot amperret</w>
shont et</w>
shont enan</w>
shon teñets</w>
shet amu
sherrb eney</w>
sherbh a'wen</w>
sh ut
sh um
sh o
sh a'pth
señ ora</w>
seyen pata</w>
setma'n tach</w>
serrpare'tat eney</w>
serparet er</w>
sent nom</w>
sen a'yes</w>
sem orr
sem ell</w>
se' ye</w>
se' ph
sasper en</w>
sam r
samr e't</w>
sa'ñemat wa'</w>
s r</w>
s on
ru sa</w>
rrrr err</w>
rro'ts ets</w>
rremo erre'</w>
rrar ech</w>
rran osa</w>
rran atsopa'</w>
rran aretenet</w>
rr um
rr perr</w>
rr e't</w>
rr achet</w>
ret atsa</w>
re xha'ch</w>
r atenet</w>
quelquk o</w>
qu quk</w>
qu añther</w>
pó t</w>
pé t
páth rror</w>
pu' n
pu et
pu em
poño ñ</w>
poé namarrém</w>
poé ll
potall mho</w>
pot nom</w>
pot ak
potak er</w>
pom ot
pokt ach</w>
pokoll ato</w>
poko yo</w>
pok thapña</w>
poey xheñ</w>
poetsath oañ</w>
poetsath mone'th</w>
poets oth</w>
poets ach</w>
poethá por</w>
poethapo rpa'</w>
poesh poena</w>
poer exh</w>
poech á</w>
poech ach</w>
poe' soyamh</w>
poe' mer
po't asher</w>
po'n menesha'</w>
po' shlletaph</w>
po' páthrror</w>
po' p
po' nanesha</w>
po' kashe
po'kashe m</w>
po' cheñets</w>
po soll
po mot</w>
po eñe't</w>
phokthap e'chwanom</w>
phe yerpa</w>
phañema' ter</w>
phay ómha</w>
phaxh omenta</w>
pham omte</w>
pham o'tsesha'</w>
pha'rrm e'</w>
pha' pa</w>
ph épha'nem</w>
ph utnum</w>
ph sa</w>
ph oxhtatnom</w>
ph o'teñets</w>
ph akowen
peñts oxhnopa'</w>
peyom nesha</w>
peyo cha</w>
pey á'</w>
pey oche'</w>
pey apechnom</w>
petsot wanom</w>
petsot wanem</w>
petma'n tatyes</w>
pethorr ame'ta</w>
pesh osh
peshosh nas
peshoshnas o't
peshoshnaso't on</w>
perr anenathe</w>
pent yes</w>
pen yes</w>
pen opa'</w>
pen a'tareth</w>
pem aretat</w>
pekw a'yes</w>
pechme't enat</w>
pe'tok math</w>
pe'mar etat</w>
pe'm ñot</w>
pe yellsheñ
pe otnom</w>
pe kell
pe a</w>
pañ e
paw u</w>
parr otampes</w>
parr o'ch</w>
parasyos o't
par teñeta't</w>
par epa
parepa w
papoech math</w>
papakll o'</w>
panam ets
pan apoeñ</w>
pamo nerr</w>
pam poe'</w>
pall aph
pallaph no</w>
pach ur</w>
pa'ñer nesha'</w>
pa't all</w>
pa't ak</w>
pa' rrarexhno</w>
pa' cheñ</w>
pa su
pa pa'</w>
pa mu
pa h
pa chorr</w>
p tall
p eñech</w>
p eserrpar
oñ et</w>
oth pe'
oth no</w>
ot xno</w>
ot t</w>
ot po'</w>
ot eñech</w>
os oma'y
orrtatyeñ tso</w>
orr et</w>
orr en
or tetsa</w>
or eth</w>
onañ chexhno</w>
onañ chen</w>
on omo</w>
on naren</w>
on en</w>
omar ña</w>
om anat</w>
oll o'
oll e'ten</w>
ok ot
ok an
o'yos ten</w>
o'n ach</w>
o' yerr
o' che
o wa</w>
o pa</w>
néyet ena</w>
né shall</w>
né sh
né s
né mon
né kellka'</w>
noxh acha'</w>
not ó</w>
norrtatnom thé'</w>
nom arr
nok thaph</w>
neyoch athé'</w>
neyaph chaso't</w>
net ant
nesh athe</w>
nen yo</w>
nen a'
nena' thé</w>
nemo ena'</w>
nekellk a'nom</w>
nechen këna</w>
ne'n anom</w>
ne yaphchana't</w>
ne klloyo</w>
ne cellc
nath a</w>
nat a</w>
nare'tats eten</w>
nare't a</w>
nar met
nar anja</w>
napo éth</w>
n eserrpar
n amha</w>
n achor</w>
món k
mé twa</w>
mé sheteñets</w>
má m
moéts an</w>
moéshech llom
moé ñoxh
moé nen</w>
morreñts o'th</w>
momo e'</w>
mok o'ch</w>
moets ech</w>
moechatset ats</w>
mo sa's</w>
mo poena</w>
mh otata</w>
met tsa</w>
mer eten</w>
me kellpa'</w>
mat tsete</w>
mat eñ</w>
mas ato</w>
mar eth</w>
mam u
mall áñ
mach ayotho'</w>
ma'the xhno</w>
ma' ñorr
ma' ñ
ma' yo
ma' chayoth
ma'chayoth o</w>
ma yarr</w>
ma sh
m othe
m okër</w>
m es</w>
m atsa</w>
llokllas o'tenan</w>
lle xhena</w>
lle chen</w>
llañem a'ten</w>
llap a's</w>
ll lle
ll l
ll ell
ll aph
l os
ké ñ
kánxh rroch</w>
kowan rrorteñeto'</w>
kow eñ</w>
kow awanom</w>
kosh tall
kosh amh
kosh ame'tena</w>
korrerrach kaye</w>
kor ós</w>
kom preshchetholl</w>
kom nach</w>
ko yayenan</w>
km ath
kellk a'nmoe'</w>
kellerr mo</w>
kañ therr</w>
kan ena</w>
ka' k</w>
k otsa</w>
k ho</w>
k er</w>
k '
ju se</w>
huom enk</w>
hu as</w>
hu all
h ph</w>
g o't
eñótat waset</w>
eñótat ney</w>
eñótat ayet</w>
eñót noman</w>
eñotoxh tatareth</w>
eñot yeñets</w>
eñe' the</w>
eñallet a't</w>
eñ ot</w>
eñ cho</w>
eñ apa'</w>
etserr are'</w>
ets pe</w>
eth omoeñets</w>
esésh athe'</w>
esomar the'</w>
esomar cha'</w>
eso' xha'</w>
eso' chena</w>
eso y
eshe r
esha'tame' tey</w>
eseshaw achka'</w>
esesh ok
esesh aye</w>
esempo pa'</w>
es óch</w>
es tr
es on
es nom</w>
es kën
es eñets</w>
es ché</w>
errrrpon a'ch</w>
errpun a'ch</w>
errpon a'xh</w>
errothen a'ch
errotent t'</w>
err á'</w>
err tena</w>
erothen thé</w>
er a't</w>
epó t
epa't o'</w>
ep tena</w>
enoñ teñets</w>
enkan esha'</w>
en wenet</w>
en oñ</w>
en moch</w>
en e't</w>
empsap ñer</w>
em xhoya</w>
ell errot
echenan the'</w>
echen ana</w>
ech á</w>
ech an
e'ñ ut
e'tat eñets</w>
e't the</w>
e't o</w>
e'rr am</w>
e'llom erets</w>
e' yet</w>
e' xhen</w>
e' moet</w>
e' chet
e x
e pot
e poch</w>
e ly
e cheñ</w>
e chene'</w>
chorr ats</w>
chopa petanatats</w>
cho pa'</w>
cheshan eshapa'</w>
chesh at
chepath olleshatyen</w>
chen a'</w>
charr a'</w>
char err</w>
ch échenan</w>
cellc o</w>
c oñ
c ka'k</w>
c ac
berr xhno</w>
berr pa</w>
ben ath</w>
añemat ets</w>
añe kup</w>
añ éts</w>
añ ra</w>
añ et</w>
añ ach</w>
aye pa'
ay chat
ay cha'</w>
axh ay</w>
awar me'tareth</w>
awan em</w>
attt ch</w>
atthekm at</w>
atthe yaye</w>
atthe n</w>
atth oth</w>
att o'ch</w>
atsompa poxhno</w>
atsn añéts</w>
atsn a'tets</w>
ats tetsa</w>
ats er
atma'ntát reth</w>
athu a</w>
athe n</w>
ath och</w>
ath as
athas atho</w>
atarr oth</w>
at éth</w>
at t</w>
at pa'</w>
at os</w>
at at</w>
ashape ll</w>
ash othpe'
arr oth</w>
areth tena</w>
ar ót</w>
apuk tatareth</w>
apu theñets</w>
apth oteñets</w>
apr atannenet</w>
apoktat e</w>
apo teñets</w>
apo ech</w>
apo c
aphth ót
aphch oteñets</w>
aph tot
apchena'ts tareth</w>
apar eth</w>
ap ts
anapo ene</w>
ana so't</w>
an eret</w>
amu en</w>
amh peñets</w>
amh pena</w>
ametheñ tso</w>
amethe ñech</w>
amethe n</w>
am re'tenet</w>
am chan
am anar</w>
aly thpa'</w>
allás ten</w>
allow enes</w>
allo hu
allm echen</w>
allempu '</w>
all xha</w>
all o'th</w>
all ll
akowen tenet</w>
akellk aret</w>
ak ar
achemer eth</w>
ache ñet</w>
ach ñenesha</w>
ach tena</w>
ach oll</w>
ach mas
ab e'
a'ter a</w>
a't etstena</w>
a't aret</w>
a't apoet</w>
a'rr ell
a'poktat arreth</w>
a'po qu
a'nos e't
a'n eñets</w>
a'met eñets</w>
a'koñ chateñets</w>
a'k tena</w>
a'bell enet</w>
a' se
a' pon
a' pan</w>
a' lles</w>
a' kll
a xho
' atarr</w>
ós tas
órr terra</w>
óret noma</w>
ókr atareth</w>
óka'k terr
ó pan</w>
ñé g</w>
ñu ten</w>
ñoñts óth</w>
ño pat
ñeñ thekma</w>
ñethe y</w>
ñet tha'</w>
ñet eñe</w>
ñe' g
ñe'g as</w>
ñ o'</w>
ñ añapa'</w>
ñ añ</w>
ñ athe
ñathe yaye</w>
épa epoxh</w>
ép sheña</w>
ép shem
ép rr
échen e'rram</w>
é xhe
é rr
é puet</w>
é poch</w>
áñ o'tenan</w>
áxh oment
áxhoment año</w>
át eth</w>
át enet</w>
át aña</w>
áshe ñorr</w>
árrorr mho</w>
ápo tatho</w>
ápan et</w>
ám renet</w>
ám pen</w>
á sher</w>
á sen</w>
á pa</w>
yénaret err</w>
yémhch atse't</w>
yém neñ</w>
yé yoxher</w>
yé yexhkateñ</w>
yé wañe</w>
yé s</w>
yé man
yé ma</w>
yé che
yé ch</w>
yátap e'chen</w>
yám othe'ten</w>
yám err</w>
yá yomha</w>
yá pate</w>
yu r
yoñ mateñ</w>
yotwan om
yotwanom the</w>
yothe pa'to'ch</w>
yompor épach</w>
yokw a'</w>
yoksh ame'tampera</w>
yok sheñesh
yeñóteñ allempó</w>
yeñotat as</w>
yeñor ayena</w>
yeñ et</w>
yey xhenapa'</w>
yey o'cha</w>
yexhkat enetthe'</w>
yexhkat ene't</w>
yexhk errerr</w>
yexhk ena</w>
yexhat ey
yexhat annenet</w>
yexhat anet</w>
yets ot
yetor kë'</w>
yethorr erra</w>
yet heñ</w>
yet an
yetan tena</w>
yes ot
yerr pa'</w>
yerr om</w>
yepoxh anom</w>
yepor e'tnen</w>
yepo moen</w>
yenpannen etthe</w>
yenar e'tyen</w>
yen ótnom</w>
yen óten</w>
yen wanen</w>
yen en</w>
yen ateñets</w>
yen apechen</w>
yemorr echa'</w>
yemchanañ othet</w>
yemam athen</w>
yema kop</w>
yem tsen</w>
yem poen</w>
yekw err</w>
yekellkë rrerr</w>
yekellkayes nen</w>
yekellk athe'</w>
yeg aten</w>
ye'wañ annena</w>
ye' pé
ye' morrechena</w>
ye womchaten</w>
ye wat
ye quelquk
ye qu
ye pu
ye porren</w>
ye por</w>
ye pakll
yaññ o'ten</w>
yañemat err</w>
yañem ách</w>
yaw ena</w>
yaw aret
yaton taten</w>
yath oma't</w>
yat añ
yat areth</w>
yapxhe rra</w>
yapoktat err</w>
yapo th
yapo c
yapo '
yaph chena</w>
yap xh
yan opa'</w>
yan ma
yan emh</w>
yan em
yanem a'ten</w>
yamat atsto</w>
yam retena</w>
yakowen tat</w>
yak u
ya'po rrarra</w>
ya'ph otholl</w>
ya' koshen</w>
ya g
y ut
y orrrr
y o'chtena</w>
y h
y amha</w>
xho po't</w>
xhet atso</w>
xhe rra</w>
xhe pha'rrme'</w>
xhe 't
xhap ts
xh oñen</w>
xh aye
wá pat
wom énk</w>
wom ech</w>
wom chateñets</w>
wepo ph</w>
wen es</w>
wañ thr
way an
waxh a'tet</w>
war apach
wan mo
wan man</w>
wall ak
wak e'sh</w>
w eñet
weñet a'pa'</w>
w ana</w>
u' th</w>
u' mar
u marr
tsá n
tsán onen</w>
tsoñ atetenan</w>
tsots eñets</w>
tsots et
tsopats e'tyen</w>
tsomo eñ</w>
tsell amets</w>
tsapo tamh
tsapath óneth</w>
tsam en
tsamen tetsa</w>
tsam athcha</w>
tsachpe' tso</w>
tsach pets</w>
tsa' chet</w>
ts ot</w>
ts orrrr
ts et</w>
ts axhe
ts ath</w>
tr on
tron co</w>
tor k
topo th
topoth otha</w>
tomantat yeñe't</w>
to rr</w>
thurr apu
thowana klle'</w>
thot allcha</w>
thorr a'po
thorats tá</w>
thor e'ten
thor e't
thom atos</w>
then a't</w>
thekor ena</w>
the mor
themor oth
thar o'mar</w>
thape' xh</w>
tha' moeñet</w>
th okënan</w>
th mer</w>
th a'nom</w>
terepe' pharr</w>
ter u
ten a'ch</w>
temant enan</w>
tema'n tatet</w>
te pá
te pa'</w>
tat e'</w>
tan sa</w>
tampset a't</w>
tam ena</w>
tam a'r
taksam h</w>
t ék
t o'</w>
t añets</w>
t arw
t aph</w>
t a'nena</w>
t a'm</w>
só ch
sóch yeñet</w>
sép tenet</w>
sén ten</w>
sén orr</w>
sén ma'ten</w>
sékw a'</w>
su' chena</w>
sokw ayes</w>
sok watanna'ta</w>
sok tha'pecherr</w>
so'spo rrrren</w>
so' xh
so' k
so qu
so chena'</w>
shéra're cheñets</w>
shélletap e'cheñets</w>
show an
shot yenet</w>
shon tená</w>
shomash ro</w>
shom entena</w>
sheñ á</w>
sheyomache mh</w>
sherbh anteñ</w>
sherben ell</w>
sherb esu'
shem pa'
shell e'tenan</w>
shell ashe
she' mo</w>
she sh
sh oñ
sh etsa</w>
señoll err</w>
señ teñ</w>
seyom ne'sha</w>
sey apech</w>
set át</w>
set enen</w>
serrrr ñats</w>
serrparñats u</w>
serrparet ateñets</w>
serrpare'tat eñtso</w>
serrpare't ñatso</w>
sentheph no</w>
sen tena</w>
sen eterr</w>
se' kw
se wayan
se khu
se c
sar apa'</w>
saph llena</w>
sanna'tet erret</w>
sam ots</w>
sa'phtho't wanemh</w>
sa'n etsro</w>
sa' poktach</w>
sa' pat
s' aphtho't
s'aphtho't wena</w>
s ót</w>
s eñotoxh
señotoxh tatnen</w>
s ech</w>
s ara</w>
s apat
s ak
rru mu
rrrr om
rrr h
rrr eth</w>
rrr a</w>
rroxh tamphs
rrorr anom</w>
rromo enan</w>
rrollot a'ta</w>
rrer a'kach</w>
rremo sheñ</w>
rremo enet</w>
rre' p
rre yaph</w>
rrarr an
rrar esha</w>
rr urr
rr ok
rr atse'teñets</w>
rr at
rr allme'
rr a
ro' pe
re't et</w>
re't ampen</w>
r é
r en
pó r
pó ma'
péy ayes</w>
pét ma'ntat</w>
pékellk er</w>
pé yetheñ</w>
pé ya</w>
pé s</w>
párr ach</w>
pá tt
puku llu</w>
puk tethe'</w>
pu esheñ
pu err
pu '</w>
ps aten
psaten enan</w>
poé st
poé n</w>
pot aph</w>
posoll phot</w>
posho'll ñapa'</w>
poshmet a'tets</w>
pos omo</w>
popotant añpa'</w>
pon erse</w>
pomot erret</w>
poll e'chen</w>
poetsath óth</w>
poetsarr are</w>
poets orr
poesh apa'</w>
poerr e't</w>
poen pa'ts</w>
poen an
poenan o</w>
poem areth
poech arr</w>
poe' merpa'</w>
poe yoxher</w>
po'ts a'</w>
po'p chen
po'n aphn
po'ma yon
po'ka she'mo</w>
po'k chell</w>
po' xhopoer</w>
po' tarwas</w>
po' mho</w>
po rrrr
po ro</w>
po por
po poeshmetatets</w>
po pa'ñernesha'</w>
phokw at</w>
phokw anom</w>
phok shenesha'</w>
phapa xharr
pham othet</w>
pha'ñema't errerr</w>
pha'ñem a'ch</w>
pha'n etsru</w>
ph óch</w>
ph otey</w>
ph apth
ph apo
ph apa</w>
peñot eñ</w>
peyoch anem</w>
peyoch a'nom</w>
peyen poeñe't</w>
pexh me'ten</w>
pets u
pets a'tera</w>
peth o'ñen</w>
pet en</w>
pesh tan</w>
pen yu</w>
pen on
pen om
penom ero</w>
pen a'n
pem ño'ch</w>
pell en
pell akashem</w>
pekw e</w>
pekkelkë rr</w>
pekellk ayes
pekellk awa</w>
pechmet err</w>
pech ap
pe'n a'</w>
pe' per</w>
pe' nanen</w>
pe' morr
pe womhchena</w>
pe quelquka</w>
pe añema't</w>
pañet en</w>
pañ pa</w>
pañ pa'</w>
paxharr rr</w>
pat och</w>
pat añ</w>
pat an</w>
parr och</w>
papllerr om</w>
pampa' weñeta'pa'</w>
pallerr petña</w>
pa'ñer pa'</w>
pa'tats chet
pa't arer</w>
pa'nam eñ</w>
pa'n enet</w>
pa'm a'</w>
pa' th
pa' ten</w>
pa' mu
pa' mothroth</w>
pa' kll
pa'kll e</w>
pa' ch
pa ñet</w>
pa xhor</w>
pa xh</w>
pa she
pa en</w>
p yen</w>
p the</w>
p etsa</w>
p eserrparet</w>
oñsas mats
oñe phll
oñ om</w>
oy pa'</w>
oxh tatnen</w>
otsen ey
ots a'yen</w>
oter eter</w>
oten yet</w>
oten ep</w>
ot ósan</w>
ot ét</w>
ot wena</w>
ot exhno</w>
ot e
osh eten</w>
orrtat e</w>
orrt am
orrrrtat yeñe'ts</w>
orrnama'm tena</w>
orret nena</w>
orr techa</w>
orr oth</w>
orr os</w>
or pan
or epa'</w>
onañ ché</w>
on ter</w>
on natha</w>
on koy
onkoy pa'</w>
ompa pa'</w>
om omh</w>
om eshpa'</w>
om arr</w>
ollo' xhar
oche ch</w>
o'ytall a'nerran</w>
o'tsen a'tña</w>
o't eñe'ts</w>
o'rr ar</w>
o'n oth</w>
o'mar pa'</w>
o'ch tapa'</w>
o' she
o yen</w>
o ya</w>
o x
o wañen</w>
o pawo</w>
o ly</w>
nó rraresha</w>
nén at</w>
némon ashe
némonashe ñets
né poro</w>
né kon
né g
neñó tat</w>
neñ oten</w>
ney aten</w>
netma'n ta't</w>
net pa'neñ</w>
net k
nerr wamoen</w>
nerr empa'</w>
nep ll
nepll osheten</w>
nen teñ</w>
nen ena</w>
nen a'n
nena'n mat</w>
nem ot
nekw ayen
neg otyen</w>
nech apoen</w>
ne' n</w>
ne pe'</w>
ne pa'ñerpa'</w>
ne m</w>
ne kh
nekh am</w>
nas en</w>
nar etenet</w>
napoktat wa</w>
nanat nomet</w>
nanat e'</w>
nanak the</w>
nana qu
nan a'</w>
nakowen et
nakowenet wapa</w>
nachar moko'ch</w>
nach o</w>
na't ena</w>
na'n etser</w>
n árr
n orrtena</w>
n orrrr
n or
n eñotoxh
neñotoxh ta't</w>
n er
n a't</w>
más pat
má sh
má poet
mu rreñets</w>
moéts oñ
moéshechllom ho</w>
moé ten</w>
moé rra'th</w>
moé koll
moth terreth</w>
morr eñtso</w>
morr eñe'tspa</w>
mor eten</w>
mon eth</w>
mok otpo'</w>
moell e'
mo xhtena</w>
mo xhen</w>
mh oth</w>
mh aret
mesh tas
mesh etpa'</w>
mem no</w>
me'tat eñets</w>
me' r</w>
mañ theten</w>
mathe yaye</w>
mat e</w>
masheñet all</w>
marr enan</w>
mar the</w>
mar eta</w>
mapo mar</w>
mam pes</w>
mam err
mam a'</w>
malláñ ch
mach yothepa'to'ch</w>
ma'psheñ tet</w>
ma'p llomh
ma'pllomh a</w>
ma'n átaña</w>
ma'kot ach</w>
ma' me</w>
ma yes</w>
ma san
m etspa'</w>
m esen</w>
m enpa'</w>
m enan</w>
m ateñets</w>
m ama</w>
los yanopa'</w>
lll ollo</w>
lles ñapa'</w>
lle phll
ll enetpa'</w>
l o</w>
kë xh</w>
kë ney</w>
kéñ kewash</w>
kéll wellmetholl</w>
kw amps
kuñ e'th</w>
ku sh
koñeth are'</w>
kowen thé'</w>
kowen the'</w>
kow nthe</w>
koshtall ethollo</w>
koshamh ñats</w>
kor sapho</w>
ko' xhneshare</w>
ko yem
kll a</w>
kh atstena</w>
ken ke
kellw emen</w>
kellkë net</w>
kellk at</w>
kellk an
kellkan thé'</w>
kellek '</w>
kell k</w>
kell e</w>
ke cheñets</w>
kañthr u</w>
kañthr etholl</w>
kañt rrer</w>
kat anet</w>
kar es
kan kë
kak aw
ka' moenet</w>
k yek</w>
k ech</w>
k añ</w>
k atsa</w>
he na</w>
h no</w>
h m</w>
g otena</w>
g es
g aten
eñótat en</w>
eñótat as
eñótatas et</w>
eñót eñtso</w>
eñó s
eñts u
eñotat wase't</w>
eñotat wanmo
eñor enet</w>
eñets pa</w>
eñallet athe'</w>
eñ ñapa'</w>
eñ átat
eñ u
eñ eñ</w>
eñ a'pa'</w>
etsets eth
ets otet</w>
eth ull</w>
eth u
eth aph</w>
et pá</w>
et kall</w>
et et</w>
et atsa</w>
esu'mar cha'</w>
eson the'</w>
eso't ñá</w>
eso't na</w>
eso'marthe' ka'</w>
eso'marthe' escha'</w>
eso'marr cha'</w>
eso'mare' cha'ña</w>
eso' chá</w>
eshkë ñothe'</w>
esha't oyentena</w>
esh k
eseshák pacha</w>
eseshakop cha</w>
esesh át</w>
esesh a'pa'</w>
ese'sh athe</w>
es othe'</w>
es che'
es chaña</w>
errrr et</w>
errponoch the'</w>
errpon acha'</w>
errothen achá</w>
errothen a'cha</w>
errothe 'ñoththe'</w>
error thencha</w>
errochen che</w>
errats ena't</w>
err ñañ</w>
err á
err r
err o'tsena'tña</w>
er óthen
er ena</w>
epé chenan</w>
ep sheña</w>
ep enet</w>
enotat ey</w>
enn ap</w>
en oth</w>
emare't eñe'ts</w>
echarr oyaye</w>
echan ethe</w>
ech oxhno</w>
eb es</w>
e'ñe' semhcha'nañoth</w>
e'tat yes</w>
e't osa</w>
e't err
e'sh at
e'rr am
e'rram ato</w>
e'nen ana</w>
e'man etsa</w>
e'chet e'th</w>
e'ch wareth</w>
e' yáteñets</w>
e' xheñets</w>
e' pa'namen</w>
e' moxhtena</w>
e yerr
e puxh</w>
e pa</w>
e kop</w>
e kma</w>
ché '</w>
chot teno</w>
chom oth</w>
chetampes nena</w>
chet acho</w>
chesh athollpa'</w>
chem nat
chekmañ atso</w>
che' che
che m</w>
che chenan</w>
chat eney</w>
char eph
char enmoch</w>
chak a</w>
cha'ñ ap
cha' warena</w>
ch otenet</w>
ch añ</w>
ch ache
car menpa'</w>
c o'
bexh këney</w>
bes rexh</w>
b é
añpa' sherben</w>
añetholl esha'</w>
añematon ap</w>
añemat e'net</w>
añem at</w>
añche klla</w>
ayepa' cha</w>
ayema ñethey</w>
ayem po'</w>
aye rpar
ay ow
axhe ñen
axh e</w>
axh anem</w>
awo' ña</w>
aw epa'cha</w>
atthekm a't</w>
atth óch</w>
att ma'ntat</w>
atsom pa'poxhno</w>
ateth och</w>
atet cha</w>
atarr pen</w>
atarr are'</w>
at omat</w>
at nomh</w>
at annata</w>
ash óstas
arr pa</w>
arr othetañ</w>
arr o'ts
arot pa</w>
ar ñats</w>
ar oth</w>
ar emh</w>
apxhe ñetspa'</w>
apxh areth</w>
apoktat a</w>
apo' cha</w>
apo éth</w>
apo xhetena</w>
apo tareth</w>
apko'll merren</w>
apht oteñets</w>
aph s
aph on</w>
apeth oteñets</w>
ape xh</w>
apart añ</w>
ap xhen
ap ta'
ap ko
ap enpa'</w>
ap enetpa'</w>
aná pan</w>
ana paen</w>
an á</w>
an met</w>
an eñets</w>
an err</w>
an e't</w>
an a'teñ</w>
amp sa</w>
amh ratenet</w>
amh chat
ama't oxhen</w>
am re'tet</w>
am atenet</w>
am atenan</w>
am apá</w>
am ampset</w>
alló wanen</w>
allpoch a'phtena</w>
alloth ñapa</w>
alloth o'ña</w>
allen thetsen</w>
allem pó
allas maren</w>
all o'nach</w>
ak mañen</w>
ahu ath</w>
ag aye
achta' pawo</w>
ache 'ten</w>
ach ten</w>
a'ñemat eña'pa'</w>
a'ñemat añ</w>
a'ñemat an</w>
a'ñ shem
a'yen ancha'</w>
a'y ak
a'tmantat aretho</w>
a't s</w>
a't enana'</w>
a'pon axhenet</w>
a'po rrarrareth</w>
a'po ma'tareth</w>
a'p á</w>
a'n errñañ</w>
a'mh pa'</w>
a'met tñets</w>
a'mata't at</w>
a'mat a'nerrñañ</w>
a'ben areth</w>
a' taten</w>
a' mampes</w>
a' kwamps
a yexhkat
a yenet</w>
a g</w>
' m</w>
' ll
' ayena</w>
ót yet
ótyet o'ch</w>
óma chan
ómachan a'tana</w>
óka'kterr apa'</w>
ó mach
ómach me'tat
ñé th</w>
ño' shena</w>
ñeñ t
ñet pa'</w>
ñerr añ</w>
ñerr 'm</w>
ñ ách</w>
ñ o'm
ñ eñets</w>
ñ esh
éñ mos
éñmos ath</w>
épshemht o'mar</w>
épshem to</w>
épo te'</w>
échen et
échen ane't</w>
éch tso't</w>
é sh</w>
é mat
áxh poe
áxhpoe pa'</w>
ás pano</w>
ápexh má
ám satsa</w>
áll pat
állpat ena</w>
á ñ</w>
á y
á poen
á pano</w>
á mh
á met
yórr pa'</w>
yéxhkat ene</w>
yét amoen</w>
yét 'ayena</w>
yénar e't</w>
yémat enaye</w>
yéman xhen</w>
yéch ten</w>
yéch kat
yé tansa</w>
yé sherbhanteñ</w>
yé pó
yá y
yáy na't
yá ch
yuk thapech</w>
yoñ pa'ten</w>
yot ye</w>
yot tamperran</w>
yot e'</w>
yorrtat en</w>
yore't eno</w>
yor eth</w>
yomts anat
yomtsanat atsto</w>
yom nesha</w>
yokw err</w>
yokw e'</w>
yokw a'nom</w>
yokthape ñ</w>
yokthape xh</w>
yoksheñesh athe</w>
yok thape'ch</w>
yok tha'pecherr</w>
yoch e</w>
yh ok
yeñur ena</w>
yeñotat wa</w>
yeñ en</w>
yeyxhat errerr</w>
yeyexhc aten</w>
yeyenpan ena</w>
yeyen pa
yeyem tena</w>
yey xha'</w>
yexhkat eñet
yexhe rret</w>
yexhatey cha'</w>
yexhat yes</w>
yexhat an</w>
yexh omanat</w>
yexh kanena</w>
yewat amhpena</w>
yew are</w>
yetsorr moreten</w>
yetsorr aten</w>
yetsep maten</w>
yets pa</w>
yets o'che</w>
yets ena</w>
yets en</w>
yets achten</w>
yetmant át</w>
yetman tatyes</w>
yethor et
yeth o'ten</w>
yet o
yeto peten</w>
yet arr</w>
yesot erra</w>
yesherbh ateñ</w>
yesherbes oterr</w>
yesh achoper</w>
yeserrpar e'terr</w>
yeser paret</w>
yes wanen</w>
yes pañet</w>
yes e't</w>
yes e'pa'namen</w>
yes ar</w>
yes apech</w>
yerrma' yen</w>
yepom yen</w>
yeph o</w>
yeph awanem</w>
yent yesar</w>
yen wa'</w>
yen ayen</w>
yen anom</w>
yen a'</w>
yemhchatset eñña</w>
yemhchatse't eñthe'</w>
yemhch ana'teñ</w>
yemh ñotwa</w>
yemch atse'teñ</w>
yemar echyen</w>
yemar e'tatyes</w>
yemam añ</w>
yema sen</w>
yem tsa</w>
yem r
yem oten
yemoten e</w>
yellsheñ et</w>
yekw ampen</w>
yekellkë 'atarr</w>
yekellk athe</w>
yek h
yeg át</w>
yeg ot</w>
yechme' ter</w>
yeche mereten</w>
yechat ey</w>
yech tso</w>
yech anena</w>
yech a'
ye'ñot oxhtatnen</w>
ye'pé rr</w>
ye'chmetat err</w>
ye' mokër</w>
ye' chen
ye'chen ana</w>
ye' chap
ye yechkat</w>
ye wañen</w>
ye pam
ye lle
ye kanoth</w>
ye choy
ye cho
yañemat errerr</w>
yaynat toñ</w>
yawaret erra</w>
yashot yerr</w>
yash utyen</w>
yapxh ayesa</w>
yapoth ayes</w>
yapo' xheteñ</w>
yapo ten</w>
yapo e</w>
yaphth otnom</w>
yaph xha</w>
yanma che</w>
yan ñoten</w>
yamr e'ten</w>
yamot sokop</w>
yamo en</w>
yam ámpen</w>
yam uts
yak erena</w>
yag aph</w>
yach poerr</w>
ya'ñema't eña'</w>
ya'po then</w>
ya'n atenan</w>
ya' moen
ya'moen mesen</w>
y qukequl
y o'k
y ets</w>
y añe
y aña</w>
y ato</w>
y as</w>
y anapaen</w>
y amh
xhorr apo</w>
xhor ene</w>
xho pnarr</w>
xhet nen</w>
xhen xh
xhe't nom</w>
xhe xh</w>
xhe r
xhe ph
xheph xheph</w>
xhaye mettsa</w>
xhat yes</w>
xharrrr a'</w>
xharr oche't</w>
xhan err</w>
xh óch</w>
xh r
xh omh
xhomh tenet</w>
xh axhe
xhaxhe rre't</w>
xh apnom</w>
xh a'nom</w>
wom chach</w>
wo enet</w>
werr aña</w>
wer ach</w>
wen terr</w>
well ochech</w>
we poeshapa'</w>
wañthr emh</w>
warr ñe'chen</w>
warr errtena</w>
warapach tall</w>
wapo ña</w>
wan katanet</w>
wan em
wamprat a'ch</w>
wampr e</w>
wamp enet</w>
wallak rren</w>
wak eshpa'</w>
wak echpa'</w>
wa'n arr
wa' pa</w>
w u
w etpá</w>
w errrr
w atwa</w>
w aret</w>
uñ th</w>
ut anet</w>
urr tetsa</w>
u' tsen</w>
u' n
u s</w>
tépash etholl</w>
ték ats</w>
tsuts e</w>
tsots a'nmoe'</w>
tsot ets</w>
tsorrot a'tach</w>
tsorr mhotata</w>
tso poet</w>
tsets e</w>
tset hena</w>
tsella'te hph</w>
tse'ñ o</w>
tse patan</w>
tsat a'</w>
tsapotamh phsa</w>
tsap nanen</w>
tsam a'
tsach ten</w>
tsach pono</w>
tsach peth
tsach mo</w>
tsa' p</w>
ts o'</w>
ts em
tsem ñapa'</w>
ts e'ten</w>
tr a
tra er</w>
topo enet</w>
tomo' pach</w>
tomantat yeñe'ts</w>
toma'n teñets</w>
thórr apo
thórrapo tats</w>
thó retatsa</w>
thápe' cherr</w>
tht ameteñets</w>
thr etholl</w>
thor etspe</w>
therro' the
themoroth ach</w>
them aten</w>
the' ka</w>
tharr rrorr
tharrrrorr ar</w>
tharr omarña</w>
thape xh</w>
thap ath</w>
th ótnom</w>
th t</w>
th oteñets</w>
th ora</w>
th ayo'</w>
tepá teñets</w>
ten othe
ten oth</w>
te yenet</w>
te s</w>
te m</w>
tañ uñ
tats tena</w>
tats te'</w>
tatar e'th</w>
tat yes
tat h
tarwas eñets</w>
tarw ats</w>
tan ats</w>
t ut
t e'pa'</w>
t añoñ
sén theten</w>
sé ta't
such etsa</w>
soxh etsa</w>
sothe ch
sok tharet</w>
sok thapña</w>
sok tha</w>
so xhe'tnom</w>
so pa</w>
shót am
shéshe ph</w>
shánk nats</w>
shot a'poets</w>
shor nañets</w>
shont a'nenan</w>
shomem tenet</w>
sheñ oth</w>
shetamu ets</w>
shetamo ech</w>
sherenk ma
sherbh atenet</w>
sherbeso' teñetspa'</w>
sherbe' s
shempa' ll</w>
shemht oth</w>
shemash r
shemashr ó</w>
shellashe llam
shech ma'th</w>
sheb ma'th</w>
she bh
sh othets</w>
señot enat</w>
señ ot</w>
seyom okop</w>
sewayan on</w>
sets ots
setsots e</w>
set amh
setamh set</w>
serrrrrrar e'tat
serrparñats ó</w>
serrparet yeset</w>
serpar e'teñets</w>
serpar e't</w>
ser e</w>
sent yeñ</w>
sem e'll
sekw atannata</w>
sekw anen</w>
sekellkë ñoth</w>
sekellkë the'</w>
sekellk ererr</w>
sech anet</w>
se't ak
se'ph awanom</w>
se'kw ayes</w>
se yérpa</w>
se ye'</w>
se xhopo't</w>
se cellc
sapat ets</w>
san ápoen</w>
san ápnom</w>
san rroth</w>
san eney</w>
sa'phth otwena</w>
sa'pat o
sa'pato peñ</w>
sa'p xhat</w>
sa'n etsr
s tenomo</w>
s rrer
s atyen</w>
s atset
satset et</w>
rrrrr arets</w>
rrorro't amh
rrorr o
rromo erre'</w>
rro'n ots
rro'n otets</w>
rrenarot a't</w>
rrem echeñets</w>
rrem echen</w>
rrem an</w>
rrarran mo</w>
rrar enan</w>
rrall an</w>
rrakë net</w>
rr óka'kterrapa'</w>
rr át
rr eñeta'</w>
rr ayes</w>
rr areth</w>
rr a'nom</w>
ret en
reten er</w>
rekër kënet</w>
rañ tha</w>
rar señets</w>
r éch</w>
r uth</w>
r tetsa</w>
r oth
r opa'</w>
r o'teñets</w>
r o'</w>
r eten</w>
r ech</w>
r e'teñets</w>
r ak</w>
quelquk areth</w>
quell é</w>
qu o'
póma' yese't</w>
pók tethe'</w>
pó tasher</w>
pó rre</w>
pén anom</w>
péch naten</w>
pé serrparet
pé pallta</w>
pé nan
pé cho
páthe rr
puk tet</w>
puen asa</w>
puech atsa</w>
pu' pu
pu pa'</w>
pu n</w>
pu er</w>
psheñ eñ</w>
poéñe p</w>
poést arr</w>
poé shemhtoth</w>
poé mall
poxh ar</w>
pot ásher</w>
posh ollpa'</w>
por a</w>
pon apenetpa'</w>
pok llenetpa'</w>
poeñ añra</w>
poey amh
poexh atsa</w>
poetsorr axhno</w>
poetsath omar</w>
poetsath o'th</w>
poets acho</w>
poeshmet atstena</w>
poeshe mht
poer ech</w>
poepar pa'</w>
poen am
poenam o</w>
poemareth oll</w>
poechen a'tetstena</w>
poech oy
poe' rror
poc tetsa</w>
po'pchen a'tets</w>
po'mayon eth</w>
po'ma yo</w>
po'k empsapñer</w>
po'ch añ</w>
po'ch añ
po' ñoxh
po' tsach
po' pon
po' paj
po'paj ot</w>
po' nen
po to</w>
po moet</w>
po moer
po ma'pam
po eña</w>
pkokw a'yerr</w>
phá n</w>
phukw a'</w>
phokw ach</w>
phokchap eth</w>
pho' chet</w>
phañem ater</w>
phañem aten</w>
phapo xha'nom</w>
phap xhat</w>
phan aph</w>
pha'ñemat eña'</w>
pha'ñem a'ten</w>
pha'n etsropa'</w>
pha' yapa
pha yés</w>
ph ak
ph agaye
ph a'mat
peñóteñ the'ka</w>
peñoser tat</w>
peñ o't
peño't amoen</w>
peñ ch</w>
peyellsheñ e'ch</w>
petsots am
petsotsam pés</w>
peserrpar e'terr</w>
per et</w>
per eshe
pep sere</w>
pent aret</w>
pena'n om
pen llo</w>
pen etthe</w>
pen are't</w>
pemo echa</w>
pell a'yena</w>
pekw amperr</w>
pekellkayes nomat</w>
pekell ë</w>
pech naten</w>
pe'ñot nomh</w>
pe'morr echa</w>
pe' sak
pe wena</w>
pe wapa</w>
pañ ats
pats ro</w>
patho pe'per</w>
pathet ech</w>
pathe rrpa'</w>
pat ennay</w>
pat atsto</w>
pashe pharr</w>
pas atsa</w>
parr ot
parepaw oth</w>
parasyoso't eneph</w>
parant tall</w>
par eññapa'</w>
panamets okma</w>
pam o'ts
pam o'n
pamo'n mte'</w>
pall er</w>
pa'tatschet o</w>
pa'tats chemh</w>
pa'so'cheñ pomorreña</w>
pa'so' moepa'</w>
pa'pare xho</w>
pa'n eñach</w>
pa'm roth</w>
pa' tsa'p</w>
pa xho'</w>
pa pera</w>
pa chet
p eñalleta</w>
p eserrparña</w>
oñsasmats aro</w>
oñephll a'mhpa'</w>
oñ o'mar
oñ mat
oñ an
oxh mo</w>
oxh etnena</w>
otseney arrorr</w>
ots esha</w>
othe't ets</w>
othe ñets</w>
oth u
oten ano'ch</w>
otas ét</w>
otas oten</w>
ot yet</w>
ot osan</w>
ot os</w>
ot os
otos yet</w>
ot eñet
oteñet a</w>
ot ateñets</w>
osoma'y arrpa'</w>
osh ko
orrten ach</w>
orrtat eñtso</w>
orrtat enan</w>
orrtam etsa</w>
oroth o</w>
or tena</w>
or ar
onom e'tosa</w>
onk ere</w>
on o'k
on aro</w>
on a'</w>
omar pa</w>
omar neshathe</w>
ollo'xhar ets</w>
oksh eten</w>
ok a'ktena</w>
och é
o'ñ eñ</w>
o'yos maren</w>
o'y she
o't yes</w>
o't a'</w>
o'rrerr ená</w>
o'rr ta</w>
o'r es</w>
o'pon otsenpa'</w>
o ly
nén a'yesa't</w>
némonasheñets orepa'</w>
nékon xha'ten</w>
nég atwa</w>
né so'
nárr olle'ten</w>
ná ll
náll e't
not allemh</w>
norr nom</w>
nom ar
nok rrerramha</w>
no pakllo</w>
neñor atnomh</w>
neñ oñpa'</w>
neñ 'ch</w>
netk allemh</w>
netant errach</w>
net poe'</w>
net ko</w>
nes aya</w>
nerr aph</w>
nen we</w>
nen orrarpa'</w>
nekw er</w>
nekellkë rrperr</w>
neg o'ten</w>
neg o'ten
ne yet
ne werra</w>
ne parasyoso'teneph</w>
ne pakëll</w>
ne pakllo</w>
ne pa'ñer</w>
ne keyka</w>
ne kellkë'</w>
ne chech</w>
nañemat wá</w>
narmet oth</w>
napoktat nom</w>
naphth oten</w>
nanak xha'</w>
na'n eret</w>
n oqu
n ayom
n atho</w>
mónk nacho</w>
mó thtameteñets</w>
mé rena</w>
mé ch</w>
mé ch
mát werra</w>
mát axherret</w>
másh th
mápñe kën</w>
mu t</w>
moéxh kënan</w>
moé shelle'tenan</w>
moé ne'</w>
mot tetsa</w>
morr rr
morr eñech</w>
morr echenet</w>
moronk emh</w>
momosak lle'
mom teñets</w>
mom ats
momats tamena</w>
moeñ allemh</w>
moets opawo</w>
moet erexh</w>
moen en</w>
moch tena</w>
mo'm e</w>
mo ya'k</w>
mo neñ</w>
mharet areth</w>
mh ar
met u</w>
meshtas o</w>
men th</w>
mañorr math</w>
mathe yo</w>
mar nesh
mar e'teñet</w>
mapoet o'mar</w>
mapoet arer</w>
malláñch año</w>
ma'yo chena</w>
ma'pam to</w>
ma'pam tena'ch</w>
ma'll arr</w>
ma' ñu
ma' yor
ma' ts
ma' pu
ma' pa
ma' moe</w>
ma yarr
m ó</w>
m ñatheyaye</w>
m emhpa'</w>
m aw
maw aro</w>
m atse'ten</w>
m apa</w>
m anom</w>
llll yoren</w>
llexhkat enet</w>
lles eñ</w>
llem o</w>
llem hch
lle chep</w>
llañem a't
llam o'ts</w>
ll yen</w>
ll ye</w>
ll ets
ll esher
ll enan</w>
ll ats
ll apoktat
l ey
ley la</w>
kó n</w>
kó k</w>
kë r</w>
koyanesh axhno</w>
koyanesh athóll</w>
koy mhoth</w>
kowen oth</w>
kowen ana'</w>
kow eney</w>
kow e</w>
kow ayeret</w>
kow ame'teñet</w>
kot ag</w>
korr ayeseth</w>
kor po'mho</w>
kor omeshpa'</w>
komon ápano</w>
ko na'tenet</w>
kmath etholl</w>
km a'th</w>
kh are</w>
kellk ena</w>
kellk arets</w>
kel yo</w>
ke xh</w>
kares nats</w>
kankë ts</w>
kanawas eth</w>
kan ther</w>
kakaw opa'</w>
kak ar</w>
kak an
k an</w>
jo ebes</w>
hu ather</w>
hu apat
ho ja</w>
he rr
he char</w>
ges to</w>
g ote
eñó to</w>
eñátat ey</w>
eñotatwanmo ey</w>
eñot eñ
eñot et</w>
eños nen</w>
eñoran matsa</w>
eñor eñets</w>
eñor anena</w>
eñeth é</w>
eñe'ts pano</w>
eñ the
eñ orr
eñ cha'</w>
exh ap</w>
ex traer</w>
ets erra'
etserra' serrparñats</w>
ets epa'
etsepa' rtetsa</w>
eth oy</w>
et eñ</w>
et aphs
etaphs aña</w>
esukup the'</w>
esomar echa</w>
esomar echa'</w>
esokop theña</w>
esochcha' yethóre'tena</w>
eso qu
eskën o'ch</w>
eshe ll
esh ón
eseshok pach</w>
eseshakop chaka</w>
esesh ache'</w>
esesh a'k
esesha'k pat</w>
ese'sh acha'</w>
es ó
es then</w>
es tar</w>
es otña</w>
errrr a't</w>
errpon owañen</w>
errpon a'
errotsen ach</w>
erroten cha'</w>
erratsen theñá</w>
erratsen cha</w>
errats en</w>
erra' chen
err othet</w>
err a
err '</w>
era' tsen
epó to'
epot aypa'</w>
ep he
enoñ et</w>
enamo eñet</w>
en weñets</w>
en lly</w>
en c
emo ñeteñe</w>
emare't al
em rer
em atwa</w>
em a'th</w>
ello' yechatañ</w>
ellerrot wanena</w>
ell apo</w>
ell apen</w>
echenan thé</w>
echen aye</w>
ech én</w>
ech yenña</w>
e'ñot poto</w>
e'ten a'
e'tat s</w>
e'n opa'</w>
e'm yet</w>
e'chorr enet</w>
e'chorr e'</w>
e' te'</w>
e' pot
e pan</w>
chén katsa</w>
ché tenet</w>
chope' chenet</w>
choch met</w>
cho' papets</w>
cho poén</w>
cheta't s</w>
chet anen</w>
cheshat o'll</w>
cheshan esha'ñapa'</w>
cher atstetsa</w>
chen e't</w>
chemet enet</w>
chekmañ ats</w>
chech nen</w>
che'che ptall
che' t</w>
che she'm</w>
che chene't</w>
che cha</w>
char aro</w>
cha'ñap eña</w>
ch añ
ch annatpan</w>
ch anachet</w>
cac axhno</w>
c oth
c arr
c ac</w>
berr pa'</w>
berr otxno</w>
berr othno</w>
añeñ pu</w>
añemat ats
añematats '</w>
añem achet</w>
añem a'teñets</w>
añ yen
ayoth e</w>
ayexhkat areth</w>
ayempo ñapa'</w>
ayaten aná</w>
ay pón</w>
ay oset</w>
ay na'tena</w>
ay ak
axhe t</w>
awoxh oña</w>
aw err
aw epa'to'</w>
aw añcheklla</w>
atthe ma'thtena</w>
atsrre' moena</w>
atsrre' mareta</w>
atso'mpa potets</w>
atsn añ</w>
atset e</w>
ats tu</w>
ats ep
ats e'tats</w>
ats at
aton tate'</w>
aton sheñá</w>
atman tat
atma'ntat reth</w>
atma'ntarr areth</w>
athe' ña</w>
ath moetsa</w>
atesh am
atesh allom
atarr tar</w>
atarr pa'</w>
atap e'chareth</w>
at u</w>
at oset</w>
at an</w>
asot yes</w>
asoch areth</w>
ashr ets</w>
asho' sho</w>
ashe' ma't</w>
ashe m
as rer
arw ás</w>
arr óth</w>
arr r</w>
arr ot
arr mó</w>
arr moxhen</w>
arr emh</w>
arr e</w>
arr añpa'</w>
ar ñapá</w>
ar éprr
ar o'm
ar epenet</w>
ar e
apxhen etpa'</w>
apu en</w>
apta' pechen</w>
apothe ñech</w>
apoktat arreth</w>
apo r</w>
apo ch</w>
apko' meth</w>
aphthót areth</w>
aphth otenep</w>
ape che</w>
apar ethtena</w>
ap ñats</w>
aná poets</w>
ant enat</w>
anets o'marpa'</w>
an os
an mach
an e'th</w>
an ap
amá xh</w>
amhps et</w>
amhchat areth</w>
ame't amp
am u'</w>
allow enet</w>
allotho'k a'ye</w>
alloth oña</w>
allm erren</w>
allempo n</w>
allem p</w>
all eshón
akot matheyaye</w>
ako phach</w>
akar yatareth</w>
akan kañ</w>
acheñen o</w>
acheñe kop</w>
ach ókratareth</w>
ach to</w>
ach poeth</w>
ach nesha'</w>
ach mosa's</w>
ach eten</w>
abhch annatpan</w>
abe' the</w>
ab exhap</w>
ab channatpan</w>
a'ñshem teno</w>
a'yes a</w>
a'yen cha'</w>
a'yapa xho</w>
a'y owen</w>
a't eneph</w>
a'shos otareth</w>
a'se chenan</w>
a'rr apoeñets</w>
a'poc tatareth</w>
a'po tareth</w>
a'phth oñets</w>
a'p atsa</w>
a'nose't nenan</w>
a'nat annena</w>
a'n osa</w>
a'methe ñet</w>
a'methe ney</w>
a'mata't wanman</w>
a'm ll
a'kwamps areth</w>
a'kll atareth</w>
a'kesh patañ</w>
a'ch poerre't</w>
a' yo
a' sechanet</w>
a' kowen
a quelqukareth</w>
a chenet</w>
ót a'tena</w>
órr err</w>
óm pr
ómpr ech</w>
ó tena</w>
ñuñ tsu
ñoñ choxhno</w>
ñorr akma</w>
ño'rr apa</w>
ño kop</w>
ñeñth xha'</w>
ñethe kop
ñet ena</w>
ñerra'm ll
ñerr am
ñerram pa</w>
ñech eth</w>
ñamh ay
ñ u'
ñ ok
ñok sheñoth</w>
ñ esha</w>
ñ esha'</w>
ñ añet</w>
ñ ató</w>
í a</w>
ë shpa'</w>
ë r</w>
ë 'll
éxhe ne'</w>
émat e'</w>
ék n</w>
é xh
é cheñ</w>
áy xhatañ</w>
át apet</w>
ás me'll
árr urr</w>
árr orotho</w>
ápoen eph</w>
áph pa'</w>
ápexhmá xhno</w>
ánk rro</w>
án ap</w>
ácham areth</w>
á th
áth ath</w>
á pa
yéxh qu
yéxh on
yéxh etsa</w>
yérrar tsor</w>
yérr oka'ktena</w>
yépó re't
yépóre't asotyes</w>
yénaret eñ</w>
yén pannena</w>
yémorr echa</w>
yémat a'ten</w>
yéma't enaye</w>
yém nen</w>
yéche po</w>
yéch moeno</w>
yé th</w>
yé tem</w>
yé tamell</w>
yé ta</w>
yé sen</w>
yé rroren</w>
yé pha'yen</w>
yé na</w>
yé morrechena</w>
yé mañ
yé kellka'</w>
yé chena</w>
yé chechnen</w>
yé chan
yéchan t</w>
yáñem ach</w>
yáyna't oñ</w>
yát o'</w>
yá thora</w>
yá shot
yáshot yen</w>
yá pa'n
yoñ matse'ten</w>
yot yeswanen</w>
yon poet</w>
yomts anat</w>
yom aw
yokw en</w>
yokthape cherr</w>
yokth aten</w>
yoksh ame'ta</w>
yok thape'cher</w>
yeñót yesnom</w>
yeñót w
yeñót nen</w>
yeñó ch</w>
yeñotat ene'</w>
yeñotat annata</w>
yeñot yerr</w>
yeyur en</w>
yeyexhkat yes</w>
yeyexhkat wa</w>
yeyexhkat nen</w>
yeyer poera</w>
yeyer poe
yeyerpoe ya</w>
yeyenpan na't
yeyenpanna't erra</w>
yeyenpa yeth</w>
yexho' mayen</w>
yexhkateñet páthe'
yexhkat añthe</w>
yexhe cha</w>
yexh orra</w>
yetsot llechen</w>
yethoret erra</w>
yeth óretnoma</w>
yeth apeche</w>
yet poe'</w>
yet pach</w>
yet ant
yet a</w>
yet a'moen</w>
yeserrpar eñ</w>
yes anen</w>
yerr mo</w>
yerr ayen</w>
yer pa'nenet</w>
yepom pyen</w>
yepo mot</w>
yepar teyena</w>
yepam poe</w>
yepakll o'mar</w>
yep tatnom</w>
yen eñ</w>
yen ena</w>
yen apech</w>
yemr e'chen</w>
yemorr echá</w>
yemh xh
yemchatseten arror</w>
yemchatset yes</w>
yemch a'natannena</w>
yemar ech</w>
yemam ar</w>
yem ño'ch</w>
yem orrtatnom</w>
yelle ka'n
yell she</w>
yell kë
yellkë ña</w>
yell apenpa'</w>
yell apen</w>
yekh atstena</w>
yekellk ayesnom</w>
yekellk a'the'</w>
yekam poena</w>
yeg otasoten</w>
yeg at</w>
yechoy o'mh</w>
yechme'tat erre</w>
yechkat enet</w>
yechat eney</w>
yech antenat</w>
ye'chap reteñets</w>
ye'ch mech</w>
ye' ts
ye' th</w>
ye' paret</w>
ye' nanen</w>
ye' mat
ye'mat annatet</w>
ye yénpannena</w>
ye wañeñ</w>
ye sechen</w>
ye klloyo</w>
ye kllo
ye kakar</w>
yañema't yen</w>
yañema't we</w>
yañem a'
yañe watwa</w>
yaynat oñ</w>
yath allmechen</w>
yatañ nesh
yatañnesh añpa</w>
yapo xhetnen</w>
yapo xh
yapoxh ayesnom</w>
yap ets</w>
yamu' ts
yamotsesh á</w>
yamo'ts esha</w>
yamh chet</w>
yamat ach</w>
yama'torrtat stenomo</w>
yam eñ
yameñ ena</w>
ya'ts otena'</w>
ya'p xha</w>
ya'ch peñts
ya' tsops
ya'tsops a'taten</w>
y or</w>
y och</w>
y o'ñeñ</w>
y añ
y ay
yay apa
yayapa xherra</w>
y atsnañ</w>
y apokt
y a'nom</w>
xhr e'rr
xhoñ eñeta'</w>
xho poeñ
xhn a'teñets</w>
xheñ atse'tats</w>
xher arrtena</w>
xhenxh ak</w>
xhe p</w>
xhe no</w>
xharram uth</w>
xhar o</w>
xhapts ayepa'cha</w>
xh á
xh pa</w>
wé yo</w>
wápat erran</w>
womenk ñats</w>
werr u</w>
waxha' tata</w>
waw er
wapotamh phseñets</w>
wapo ret
wan kapo
wan enan</w>
wallama'th are'</w>
wa'narr ona'</w>
w orar
worar esnom</w>
w eshe'
w errrra</w>
w ath
ut et</w>
urr e'</w>
u' ts</w>
u' ten</w>
u k</w>
tu ñer
tt r
tt '</w>
tsáchph arpa'</w>
tsots tato</w>
tsots tat</w>
tsor tsor</w>
tsom tena</w>
tsom aten</w>
tso pan</w>
tsapo pa'</w>
tsapath amoena</w>
tsamn etsa</w>
tsachp e'ts</w>
tsache p</w>
tsache chor</w>
tsach kon
tsachkon och</w>
ts tena</w>
ts onkere</w>
ts ochexhno</w>
ts eñets</w>
ts e'twa</w>
ts añ
tomantat yesa</w>
toman tetsa</w>
to' ret
to' pan
to'pan etspa'</w>
to xhno</w>
to ph
toph ño</w>
thots nechapoen</w>
thorats pe</w>
tho y</w>
theñ o'</w>
therro' thmer</w>
thek ma
the ñet</w>
the mpo</w>
tharrrr o'rrar</w>
than mare'teñet</w>
th okr
teñer och</w>
tepo' mech</w>
tenothe yetsen</w>
ten o'mar</w>
ten eto</w>
ten a't</w>
tema'n tat</w>
te ll</w>
te kma'th</w>
te j
tej er</w>
tats to</w>
tat wa</w>
tat arech</w>
tas or
tas anom</w>
tampset a</w>
ta'yes the'</w>
t u'
t ots
tots eñets</w>
t nom</w>
t errerr</w>
t añoch</w>
t aye
t arreth</w>
t ann
tann erra</w>
t amn
tamn a't</w>
t '
séta't enet</w>
sérrpar ñach</w>
sérr mayes</w>
sékellkë rr</w>
sékellk a'
sékellka' shem
sékellka'shem at</w>
sé yem</w>
sé yas
sé pe</w>
su' ch
st onomo</w>
sot ete'th</w>
sot ateñets</w>
som hch
somhch anat</w>
soll t
sok thapechyes</w>
so' teñetspa'</w>
so werach</w>
so so'
so shem</w>
so sen</w>
so c
shér bets</w>
shéll et</w>
shé p
shép sh
shépsh are'</w>
shé na'</w>
shé m
shém per</w>
shon tetsa</w>
sherenkma sopa</w>
sherbes otenet</w>
sherbe' so'teñetspa'</w>
sher mo
shermo é</w>
shellashellam h</w>
shell memhpa'</w>
shek r
she'rar enet</w>
she shenan</w>
she pan</w>
she cheph</w>
sh och
sh eth
sh a</w>
señot wanom</w>
señ s</w>
set arwás</w>
set a'nena</w>
seserrparet wa</w>
ses erpare't</w>
serrparñats otsa'yen</w>
serrparetat eñetspa</w>
serrparet eñtso</w>
serrparet at</w>
serrpare'tat o</w>
serrpar eten</w>
serr pa</w>
serpar ñatso</w>
ser ech</w>
semh ñoten</w>
semh ño'ch</w>
sem ñotyes</w>
sell om</w>
sekellk ashe'ma't</w>
se'tak lla</w>
se't arwas</w>
se qu
sañemat eñapa'</w>
sas are't
sasare't eñet</w>
san etsro</w>
san cho
san ataya</w>
san ap
san a'p</w>
sa'netsr opa</w>
sa'n ematwa</w>
sa' reph
s ánap</w>
s rrrrrr
srrrrrr par
s oneth</w>
s ets</w>
s añ
s ab
rré moenet</w>
rrr orr</w>
rrow ánkrro</w>
rrothe chech</w>
rrorro'tamh tsopan</w>
rrorr o'ten</w>
rrom áyes</w>
rrom átenet</w>
rrom ámh
rrom po'chañ</w>
rro pha'nom</w>
rreñts or</w>
rre'p tor</w>
rrath ota</w>
rrarr tse'twa</w>
rrarr maren</w>
rran këxh</w>
rran amphsan</w>
rra yenan</w>
rr o'teñets</w>
rr o'
rr atse'ten</w>
rr a'neñets</w>
rot naten</w>
ror pe'nanen</w>
ror er
ro'pe chenet</w>
rek er
rek a'yesa</w>
re't enan</w>
re ph</w>
r ok
r esh
resh ats</w>
r ana</w>
ququ ka
ququka xhno</w>
qu oth
qu ok
qu kel
qukel qu
pór etspa'</w>
póporr ocho</w>
péserrparet a'ch
pénan em</w>
pén et</w>
pé rañ
pé pha</w>
páthet ets</w>
pám nar
pámnar ó
puk teyaye</w>
puk te</w>
pu esh
pu e'ñ
poéñe ph</w>
poémall ánt</w>
poé sheñ
poé r
poé cheshe'm</w>
posho'll pa'</w>
posh ak</w>
porr o</w>
porr ayo</w>
popotant añpa</w>
pon o'mar</w>
pon e'net</w>
poma'pam tañoch</w>
pom yese'pa'namen</w>
pom oten
pomoten pa'</w>
poll or</w>
pok wer</w>
pok wa</w>
pok llen
pokllen apa'</w>
pok ashe'm</w>
pok a</w>
poeñ an
poeyamh per</w>
poetsath opa'</w>
poets ato</w>
poets ach
poet ell
poeshemht othe'tets</w>
poesh osh
poeshosh nat</w>
poerrar mech</w>
poen am</w>
poell ás</w>
poechñ emhpa'</w>
poechoy or</w>
poech acha</w>
poe'ñ arpa'</w>
poe'rror emh</w>
poe'mer ethollesha'</w>
poe' llap</w>
poe xh</w>
po'tsach or</w>
po'señ apa'</w>
po'poño ñethpa'</w>
po'pon o
po'pono ñethpa'</w>
po'naphn ora</w>
po'n mer</w>
po'k kar</w>
po'chañ chor</w>
po'ch onaro</w>
po' w
po' therro'thmer</w>
po' machet</w>
po' ll
po' kon
po pastella</w>
po eñets</w>
po errrr
phá esthe'</w>
phokhu a'nom</w>
phok rreña</w>
phll are'</w>
phay atena</w>
